{
  "version": "1.0",
  "truncation": null,
  "padding": null,
  "added_tokens": [
    {
      "id": 0,
      "content": "<pad>",
      "single_word": false,
      "lstrip": false,
      "rstrip": false,
      "normalized": false,
      "special": true
    },
    {
      "id": 1,
      "content": "<unk>",
      "single_word": false,
      "lstrip": false,
      "rstrip": false,
      "normalized": false,
      "special": true
    },
    {
      "id": 2,
      "content": "<bos>",
      "single_word": false,
      "lstrip": false,
      "rstrip": false,
      "normalized": false,
      "special": true
    },
    {
      "id": 3,
      "content": "<eos>",
      "single_word": false,
      "lstrip": false,
      "rstrip": false,
      "normalized": false,
      "special": true
    },
    {
      "id": 4,
      "content": "<NL>",
      "single_word": false,
      "lstrip": false,
      "rstrip": false,
      "normalized": false,
      "special": true
    }
  ],
  "normalizer": {
    "type": "Sequence",
    "normalizers": [
      {
        "type": "NFC"
      },
      {
        "type": "Replace",
        "pattern": {
          "String": "\r\n"
        },
        "content": "\n"
      },
      {
        "type": "Replace",
        "pattern": {
          "String": "\r"
        },
        "content": "\n"
      }
    ]
  },
  "pre_tokenizer": {
    "type": "Sequence",
    "pretokenizers": [
      {
        "type": "Split",
        "pattern": {
          "String": "\n"
        },
        "behavior": "Isolated",
        "invert": false
      },
      {
        "type": "Whitespace"
      }
    ]
  },
  "post_processor": null,
  "decoder": null,
  "model": {
    "type": "BPE",
    "dropout": null,
    "unk_token": "<unk>",
    "continuing_subword_prefix": null,
    "end_of_word_suffix": null,
    "fuse_unk": false,
    "byte_fallback": false,
    "ignore_merges": false,
    "vocab": {
      "<pad>": 0,
      "<unk>": 1,
      "<bos>": 2,
      "<eos>": 3,
      "<NL>": 4,
      "<": 5,
      ">": 6,
      "A": 7,
      "B": 8,
      "C": 9,
      "D": 10,
      "E": 11,
      "F": 12,
      "G": 13,
      "H": 14,
      "I": 15,
      "J": 16,
      "K": 17,
      "L": 18,
      "M": 19,
      "N": 20,
      "O": 21,
      "P": 22,
      "Q": 23,
      "R": 24,
      "S": 25,
      "T": 26,
      "U": 27,
      "V": 28,
      "W": 29,
      "X": 30,
      "Y": 31,
      "Z": 32,
      "a": 33,
      "b": 34,
      "c": 35,
      "d": 36,
      "e": 37,
      "f": 38,
      "g": 39,
      "h": 40,
      "i": 41,
      "j": 42,
      "k": 43,
      "l": 44,
      "m": 45,
      "n": 46,
      "o": 47,
      "p": 48,
      "q": 49,
      "r": 50,
      "s": 51,
      "t": 52,
      "u": 53,
      "v": 54,
      "w": 55,
      "x": 56,
      "y": 57,
      "z": 58,
      "ก": 59,
      "ข": 60,
      "ฃ": 61,
      "ค": 62,
      "ฅ": 63,
      "ฆ": 64,
      "ง": 65,
      "จ": 66,
      "ฉ": 67,
      "ช": 68,
      "ซ": 69,
      "ฌ": 70,
      "ญ": 71,
      "ฎ": 72,
      "ฏ": 73,
      "ฐ": 74,
      "ฑ": 75,
      "ฒ": 76,
      "ณ": 77,
      "ด": 78,
      "ต": 79,
      "ถ": 80,
      "ท": 81,
      "ธ": 82,
      "น": 83,
      "บ": 84,
      "ป": 85,
      "ผ": 86,
      "ฝ": 87,
      "พ": 88,
      "ฟ": 89,
      "ภ": 90,
      "ม": 91,
      "ย": 92,
      "ร": 93,
      "ฤ": 94,
      "ล": 95,
      "ฦ": 96,
      "ว": 97,
      "ศ": 98,
      "ษ": 99,
      "ส": 100,
      "ห": 101,
      "ฬ": 102,
      "อ": 103,
      "ฮ": 104,
      "ฯ": 105,
      "ะ": 106,
      "ั": 107,
      "า": 108,
      "ำ": 109,
      "ิ": 110,
      "ี": 111,
      "ึ": 112,
      "ื": 113,
      "ุ": 114,
      "ู": 115,
      "ฺ": 116,
      "฿": 117,
      "เ": 118,
      "แ": 119,
      "โ": 120,
      "ใ": 121,
      "ไ": 122,
      "ๅ": 123,
      "ๆ": 124,
      "็": 125,
      "่": 126,
      "้": 127,
      "๊": 128,
      "๋": 129,
      "์": 130,
      "ํ": 131,
      "๎": 132,
      "๏": 133,
      "๐": 134,
      "๑": 135,
      "๒": 136,
      "๓": 137,
      "๔": 138,
      "๕": 139,
      "๖": 140,
      "๗": 141,
      "๘": 142,
      "๙": 143,
      "๚": 144,
      "๛": 145,
      "าร": 146,
      "อง": 147,
      "ี่": 148,
      "ระ": 149,
      "ที่": 150,
      "การ": 151,
      "่า": 152,
      "ใน": 153,
      "้า": 154,
      "ัน": 155,
      "เป": 156,
      "หม": 157,
      "แล": 158,
      "็น": 159,
      "่ง": 160,
      "ับ": 161,
      "่อ": 162,
      "ีย": 163,
      "เป็น": 164,
      "าย": 165,
      "และ": 166,
      "าก": 167,
      "ของ": 168,
      "ด้": 169,
      "ัง": 170,
      "าม": 171,
      "ั้": 172,
      "ัก": 173,
      "ประ": 174,
      "ร์": 175,
      "ือ": 176,
      "ู่": 177,
      "รา": 178,
      "มี": 179,
      "าน": 180,
      "คร": 181,
      "ได้": 182,
      "เม": 183,
      "ริ": 184,
      "ื่อ": 185,
      "หล": 186,
      "มา": 187,
      "่น": 188,
      "ิน": 189,
      "าง": 190,
      "เก": 191,
      "ั้ง": 192,
      "หน": 193,
      "ัด": 194,
      "พระ": 195,
      "เร": 196,
      "อย": 197,
      "ติ": 198,
      "้น": 199,
      "เล": 200,
      "เข": 201,
      "เท": 202,
      "จาก": 203,
      "วิ": 204,
      "่ว": 205,
      "เด": 206,
      "ว่า": 207,
      "ภา": 208,
      "วด": 209,
      "รร": 210,
      "เพ": 211,
      "หมู่": 212,
      "ู้": 213,
      "ให": 214,
      "โด": 215,
      "ชา": 216,
      "หมวด": 217,
      "อน": 218,
      "หมวดหมู่": 219,
      "อก": 220,
      "คว": 221,
      "อร์": 222,
      "กับ": 223,
      "ิง": 224,
      "กล": 225,
      "โดย": 226,
      "ตร": 227,
      "รับ": 228,
      "ทย": 229,
      "นา": 230,
      "รั": 231,
      "ึ่ง": 232,
      "ิด": 233,
      "ผู้": 234,
      "อา": 235,
      "ให้": 236,
      "ัว": 237,
      "พศ": 238,
      "เจ": 239,
      "ปี": 240,
      "ความ": 241,
      "เส": 242,
      "os": 243,
      "่าง": 244,
      "ี้": 245,
      "่อง": 246,
      "้าง": 247,
      "จะ": 248,
      "ไม": 249,
      "ไป": 250,
      "ัย": 251,
      "แต": 252,
      "ึง": 253,
      "วัน": 254,
      "เว": 255,
      "เช": 256,
      "ราช": 257,
      "นัก": 258,
      "าล": 259,
      "กร": 260,
      "ทาง": 261,
      "สุ": 262,
      "eos": 263,
      "er": 264,
      "้อ": 265,
      "an": 266,
      "้อง": 267,
      "เน": 268,
      "คม": 269,
      "สม": 270,
      "ลง": 271,
      "วง": 272,
      "ลา": 273,
      "กัน": 274,
      "อบ": 275,
      "ั้น": 276,
      "รง": 277,
      "่ม": 278,
      "ทำ": 279,
      "วย": 280,
      "เทศ": 281,
      "เอ": 282,
      "ตั้ง": 283,
      "on": 284,
      "ไม่": 285,
      "in": 286,
      "ูก": 287,
      "นี้": 288,
      "นิ": 289,
      "ย์": 290,
      "วัด": 291,
      "ียน": 292,
      "ซึ่ง": 293,
      "ตัว": 294,
      "ื่อง": 295,
      "ษา": 296,
      "หา": 297,
      "ภาพ": 298,
      "แต่": 299,
      "้าน": 300,
      "คน": 301,
      "อยู่": 302,
      "มิ": 303,
      "ดี": 304,
      "ชน": 305,
      "ต่อ": 306,
      "วั": 307,
      "คล": 308,
      "รรม": 309,
      "สต": 310,
      "เซ": 311,
      "บุ": 312,
      "ประเทศ": 313,
      "รี": 314,
      "ือง": 315,
      "ิก": 316,
      "แบ": 317,
      "หร": 318,
      "ใช": 319,
      "เจ้า": 320,
      "ออก": 321,
      "or": 322,
      "ตำ": 323,
      "ไทย": 324,
      "รัฐ": 325,
      "สำ": 326,
      "ยา": 327,
      "เมื่อ": 328,
      "คศ": 329,
      "แห": 330,
      "ึก": 331,
      "al": 332,
      "ใช้": 333,
      "พิ": 334,
      "at": 335,
      "เมือง": 336,
      "ียง": 337,
      "ถึง": 338,
      "en": 339,
      "จำ": 340,
      "ar": 341,
      "ธิ": 342,
      "งาน": 343,
      "อล": 344,
      "เขา": 345,
      "ขึ": 346,
      "ขึ้น": 347,
      "ด้วย": 348,
      "แห่ง": 349,
      "กา": 350,
      "เบ": 351,
      "สร": 352,
      "ศา": 353,
      "ทั": 354,
      "ค์": 355,
      "เต": 356,
      "ัญ": 357,
      "โล": 358,
      "าร์": 359,
      "วน": 360,
      "ณะ": 361,
      "ี่ย": 362,
      "ก็": 363,
      "หาร": 364,
      "สา": 365,
      "หรือ": 366,
      "นั้น": 367,
      "ส์": 368,
      "ชื่อ": 369,
      "แส": 370,
      "ทั้ง": 371,
      "es": 372,
      "่วน": 373,
      "สิ": 374,
      "อย่าง": 375,
      "ดง": 376,
      "ส่วน": 377,
      "ทร": 378,
      "้ำ": 379,
      "กระ": 380,
      "แก": 381,
      "สาม": 382,
      "แม": 383,
      "ลิ": 384,
      "ณ์": 385,
      "ชาว": 386,
      "ที": 387,
      "รว": 388,
      "สถ": 389,
      "เพื่อ": 390,
      "ุม": 391,
      "บริ": 392,
      "กิ": 393,
      "วิทย": 394,
      "คือ": 395,
      "โร": 396,
      "ละ": 397,
      "ครั้ง": 398,
      "วันที่": 399,
      "เค": 400,
      "่งข": 401,
      "ชี": 402,
      "ดิ": 403,
      "ยัง": 404,
      "ถูก": 405,
      "ดา": 406,
      "้อม": 407,
      "ื่น": 408,
      "ตุ": 409,
      "ได้รับ": 410,
      "เข้า": 411,
      "จุ": 412,
      "สุด": 413,
      "อด": 414,
      "ูล": 415,
      "ดับ": 416,
      "ิล": 417,
      "he": 418,
      "แข": 419,
      "it": 420,
      "ก่อ": 421,
      "เห": 422,
      "โอ": 423,
      "แบบ": 424,
      "ีก": 425,
      "นต": 426,
      "เกิด": 427,
      "อำ": 428,
      "อิ": 429,
      "หลัง": 430,
      "บล": 431,
      "่าย": 432,
      "is": 433,
      "ic": 434,
      "อิง": 435,
      "ตาม": 436,
      "จัง": 437,
      "อ้าง": 438,
      "เรียน": 439,
      "อุ": 440,
      "แร": 441,
      "มหา": 442,
      "็ก": 443,
      "ปร": 444,
      "สน": 445,
      "มาก": 446,
      "ชาติ": 447,
      "ุน": 448,
      "กำ": 449,
      "ยุ": 450,
      "จังห": 451,
      "องค์": 452,
      "ายน": 453,
      "้ว": 454,
      "หนึ่ง": 455,
      "วา": 456,
      "แสดง": 457,
      "น์": 458,
      "เภ": 459,
      "พล": 460,
      "le": 461,
      "็จ": 462,
      "จังหวัด": 463,
      "บัน": 464,
      "สร้าง": 465,
      "หน้า": 466,
      "จัก": 467,
      "สู": 468,
      "อ้างอิง": 469,
      "จัด": 470,
      "ศาสต": 471,
      "ัต": 472,
      "ช่ว": 473,
      "กรรม": 474,
      "ตำบล": 475,
      "ศึก": 476,
      "ันธ": 477,
      "ราย": 478,
      "ตะ": 479,
      "ือน": 480,
      "อื่น": 481,
      "ุ่น": 482,
      "โรง": 483,
      "เพลง": 484,
      "ักษ": 485,
      "ศาสตร์": 486,
      "่าน": 487,
      "บท": 488,
      "รู": 489,
      "้าย": 490,
      "ด์": 491,
      "น้ำ": 492,
      "เรื่อง": 493,
      "ต้": 494,
      "บา": 495,
      "แรก": 496,
      "ียว": 497,
      "่วม": 498,
      "โม": 499,
      "ปล": 500,
      "อม": 501,
      "สี": 502,
      "ัล": 503,
      "ซี": 504,
      "ศึกษา": 505,
      "ิม": 506,
      "ion": 507,
      "ตรี": 508,
      "แน": 509,
      "ัม": 510,
      "รวม": 511,
      "เลือ": 512,
      "ารถ": 513,
      "ดู": 514,
      "คำ": 515,
      "ธรรม": 516,
      "จึง": 517,
      "ใหญ": 518,
      "พื": 519,
      "ใหญ่": 520,
      "เธ": 521,
      "พร": 522,
      "ol": 523,
      "สามารถ": 524,
      "ใจ": 525,
      "จิ": 526,
      "ต่าง": 527,
      "แท": 528,
      "ยนต": 529,
      "ญา": 530,
      "of": 531,
      "ุ่ม": 532,
      "เคร": 533,
      "นำ": 534,
      "เรีย": 535,
      "โน": 536,
      "โลก": 537,
      "เหล": 538,
      "หมาย": 539,
      "เย": 540,
      "โก": 541,
      "บ้าน": 542,
      "เภอ": 543,
      "อำเภอ": 544,
      "อัน": 545,
      "ื้อ": 546,
      "คา": 547,
      "พรร": 548,
      "จน": 549,
      "ผล": 550,
      "เขต": 551,
      "ชาย": 552,
      "แล้ว": 553,
      "am": 554,
      "่งขัน": 555,
      "แข่งขัน": 556,
      "กุ": 557,
      "ฤษ": 558,
      "สง": 559,
      "าะ": 560,
      "สถาน": 561,
      "สัง": 562,
      "re": 563,
      "เศ": 564,
      "ต์": 565,
      "ว่าง": 566,
      "ุก": 567,
      "มน": 568,
      "อีก": 569,
      "ต้อง": 570,
      "ใต้": 571,
      "้อมูล": 572,
      "ฐาน": 573,
      "สอง": 574,
      "พันธ": 575,
      "เลือก": 576,
      "วี": 577,
      "ขา": 578,
      "ต้น": 579,
      "ไฟ": 580,
      "กี": 581,
      "เธอ": 582,
      "าลัย": 583,
      "เช่น": 584,
      "บอล": 585,
      "พื้น": 586,
      "นาย": 587,
      "วิทยาลัย": 588,
      "as": 589,
      "ปั": 590,
      "ทำให้": 591,
      "สมา": 592,
      "รัก": 593,
      "ุง": 594,
      "สห": 595,
      "หม่": 596,
      "ยนตร์": 597,
      "วิต": 598,
      "ทีม": 599,
      "ภาพยนตร์": 600,
      "คณะ": 601,
      "เฉ": 602,
      "us": 603,
      "บาล": 604,
      "ใหม่": 605,
      "om": 606,
      "บั": 607,
      "จี": 608,
      "ภาษา": 609,
      "แหล": 610,
      "่าว": 611,
      "ศ์": 612,
      "ทรง": 613,
      "เล่น": 614,
      "ภู": 615,
      "ทิ": 616,
      "แก่": 617,
      "ชิ": 618,
      "ทธิ": 619,
      "กอง": 620,
      "ร่วม": 621,
      "คุ": 622,
      "วรร": 623,
      "รูป": 624,
      "ชีวิต": 625,
      "ยู": 626,
      "โรงเรียน": 627,
      "จักร": 628,
      "ประก": 629,
      "หว่าง": 630,
      "เครื่อง": 631,
      "กลุ่ม": 632,
      "ระหว่าง": 633,
      "ห์": 634,
      "้อย": 635,
      "บาง": 636,
      "ด้าน": 637,
      "สาร": 638,
      "กว่า": 639,
      "ig": 640,
      "ทธ": 641,
      "ฟุ": 642,
      "ปัจ": 643,
      "ดิน": 644,
      "ละคร": 645,
      "ตา": 646,
      "วงศ์": 647,
      "เวลา": 648,
      "ยก": 649,
      "ดน": 650,
      "ช่วง": 651,
      "ดำ": 652,
      "พบ": 653,
      "ณา": 654,
      "ซา": 655,
      "สูง": 656,
      "el": 657,
      "and": 658,
      "แทน": 659,
      "หรับ": 660,
      "ก่อน": 661,
      "โต": 662,
      "ครอง": 663,
      "ไว": 664,
      "้ง": 665,
      "กิจ": 666,
      "il": 667,
      "เริ": 668,
      "ดัง": 669,
      "เตอร์": 670,
      "ชนะ": 671,
      "ปก": 672,
      "หลาย": 673,
      "ตอน": 674,
      "ล์": 675,
      "มัน": 676,
      "ภาค": 677,
      "ฟุต": 678,
      "วัติ": 679,
      "ัส": 680,
      "จุบัน": 681,
      "ปัจจุบัน": 682,
      "หญ": 683,
      "ชม": 684,
      "หลัก": 685,
      "าศ": 686,
      "หัว": 687,
      "แพ": 688,
      "ing": 689,
      "กลาง": 690,
      "ch": 691,
      "เดียว": 692,
      "ed": 693,
      "ภาย": 694,
      "บุค": 695,
      "ไร": 696,
      "ซิ": 697,
      "ตะวัน": 698,
      "บุคคล": 699,
      "เริ่ม": 700,
      "เพิ": 701,
      "จำน": 702,
      "มหาวิทยาลัย": 703,
      "แผ": 704,
      "ur": 705,
      "ี่ยว": 706,
      "อิน": 707,
      "เดือน": 708,
      "สำหรับ": 709,
      "หญิง": 710,
      "โค": 711,
      "ฟุตบอล": 712,
      "ราง": 713,
      "จำนวน": 714,
      "พระราช": 715,
      "วก": 716,
      "สาย": 717,
      "วัล": 718,
      "รู้": 719,
      "ประกอบ": 720,
      "นคร": 721,
      "the": 722,
      "การแข่งขัน": 723,
      "เพิ่ม": 724,
      "เด็จ": 725,
      "ที่สุด": 726,
      "สมเด็จ": 727,
      "ยม": 728,
      "ากาศ": 729,
      "เหน": 730,
      "ูน": 731,
      "ฬา": 732,
      "เปล": 733,
      "ชิก": 734,
      "สมาชิก": 735,
      "ต่อมา": 736,
      "พระองค์": 737,
      "ณฑ": 738,
      "ท์": 739,
      "เมริ": 740,
      "et": 741,
      "พั": 742,
      "ประวัติ": 743,
      "โย": 744,
      "ลำ": 745,
      "บน": 746,
      "ั่ง": 747,
      "เสียง": 748,
      "ส่ง": 749,
      "สภา": 750,
      "ังก": 751,
      "ุด": 752,
      "ซ์": 753,
      "เสีย": 754,
      "ตี": 755,
      "ปฏ": 756,
      "เหตุ": 757,
      "โบ": 758,
      "ลักษ": 759,
      "ติด": 760,
      "อัล": 761,
      "ว์": 762,
      "หลวง": 763,
      "อากาศ": 764,
      "ปุ่น": 765,
      "ญี่": 766,
      "ac": 767,
      "ญี่ปุ่น": 768,
      "อาจ": 769,
      "ลูก": 770,
      "id": 771,
      "อเมริ": 772,
      "สมัย": 773,
      "กีฬา": 774,
      "ราะ": 775,
      "เอก": 776,
      "แหล่งข": 777,
      "โซ": 778,
      "แหล่งข้อมูล": 779,
      "ระดับ": 780,
      "ชั้น": 781,
      "แหน": 782,
      "เหนือ": 783,
      "เกม": 784,
      "ent": 785,
      "รถ": 786,
      "ตำแหน": 787,
      "ตำแหน่ง": 788,
      "เทพ": 789,
      "ในประเทศ": 790,
      "ro": 791,
      "กฎ": 792,
      "เรียก": 793,
      "ธี": 794,
      "รางวัล": 795,
      "ระบ": 796,
      "ตั้งแต่": 797,
      "กัด": 798,
      "อะ": 799,
      "ศรี": 800,
      "กรม": 801,
      "ช่อง": 802,
      "พุ": 803,
      "โทร": 804,
      "็บ": 805,
      "้อน": 806,
      "รอบ": 807,
      "ออ": 808,
      "ปฏิ": 809,
      "ตก": 810,
      "ป์": 811,
      "un": 812,
      "นาง": 813,
      "กรุง": 814,
      "ภูมิ": 815,
      "เง": 816,
      "นด์": 817,
      "ศิล": 818,
      "ธาน": 819,
      "วิทยา": 820,
      "พื้นที่": 821,
      "จีน": 822,
      "กล่าว": 823,
      "ตน": 824,
      "ี่ยน": 825,
      "ทอง": 826,
      "um": 827,
      "หมด": 828,
      "The": 829,
      "เปิด": 830,
      "ลี": 831,
      "สต์": 832,
      "ร้อง": 833,
      "หลังจาก": 834,
      "ทัศ": 835,
      "ทหาร": 836,
      "เนื่อง": 837,
      "นอก": 838,
      "ฒนา": 839,
      "ยะ": 840,
      "รับบท": 841,
      "สัญ": 842,
      "ัท": 843,
      "พระเจ้า": 844,
      "รม": 845,
      "โท": 846,
      "ไว้": 847,
      "กลับ": 848,
      "ทั่ว": 849,
      "พรรค": 850,
      "เปลี่ยน": 851,
      "ั่น": 852,
      "็ม": 853,
      "ag": 854,
      "th": 855,
      "ืน": 856,
      "บรร": 857,
      "สิง": 858,
      "เรือ": 859,
      "ระบบ": 860,
      "ผ่าน": 861,
      "ation": 862,
      "โจ": 863,
      "เดิม": 864,
      "เฟ": 865,
      "เลือกตั้ง": 866,
      "ทุก": 867,
      "้ม": 868,
      "บาท": 869,
      "เอง": 870,
      "แป": 871,
      "ทัศน์": 872,
      "มาณ": 873,
      "ประจำ": 874,
      "มห": 875,
      "เกี่ยว": 876,
      "อดี": 877,
      "ลัง": 878,
      "ประชา": 879,
      "ที่จะ": 880,
      "ฟ้า": 881,
      "ายุ": 882,
      "ad": 883,
      "ิร์": 884,
      "ช่วย": 885,
      "สะ": 886,
      "ขนา": 887,
      "รอง": 888,
      "บัติ": 889,
      "เซีย": 890,
      "คราม": 891,
      "ศิลป": 892,
      "อดีต": 893,
      "แอ": 894,
      "ทะ": 895,
      "im": 896,
      "ขนาด": 897,
      "ไซ": 898,
      "อี": 899,
      "อังก": 900,
      "อังกฤษ": 901,
      "สงคราม": 902,
      "ยาย": 903,
      "เมตร": 904,
      "พุทธ": 905,
      "รส": 906,
      "กุล": 907,
      "iv": 908,
      "ิต": 909,
      "สิน": 910,
      "สัน": 911,
      "เขียน": 912,
      "โปร": 913,
      "พัฒนา": 914,
      "ทัพ": 915,
      "ศัก": 916,
      "การศึกษา": 917,
      "สิ่ง": 918,
      "คุณ": 919,
      "็ด": 920,
      "อันดับ": 921,
      "นักแสดง": 922,
      "พวก": 923,
      "นน": 924,
      "เล็ก": 925,
      "มาจาก": 926,
      "ษัท": 927,
      "รายการ": 928,
      "คาร": 929,
      "คัญ": 930,
      "สิทธิ": 931,
      "ter": 932,
      "สำคัญ": 933,
      "บริษัท": 934,
      "ขณะ": 935,
      "มนตรี": 936,
      "บู": 937,
      "รุ": 938,
      "แนว": 939,
      "อิส": 940,
      "แชม": 941,
      "สำนัก": 942,
      "บุรี": 943,
      "ไม้": 944,
      "เห็น": 945,
      "บิน": 946,
      "สหรัฐ": 947,
      "แต่ง": 948,
      "กาศ": 949,
      "ลิต": 950,
      "ยอด": 951,
      "โทรทัศน์": 952,
      "กำลัง": 953,
      "่อย": 954,
      "นี": 955,
      "ap": 956,
      "จาร": 957,
      "นาน": 958,
      "ot": 959,
      "ทั้งหมด": 960,
      "โคร": 961,
      "เดิน": 962,
      "ษฎ": 963,
      "พันธ์": 964,
      "คริ": 965,
      "แค": 966,
      "พฤ": 967,
      "ชุด": 968,
      "น้อย": 969,
      "การณ์": 970,
      "รณ์": 971,
      "ประมาณ": 972,
      "ปกครอง": 973,
      "st": 974,
      "ul": 975,
      "บี": 976,
      "แลนด์": 977,
      "ลาย": 978,
      "ชิง": 979,
      "อาณา": 980,
      "เพียง": 981,
      "ถือ": 982,
      "เฮ": 983,
      "เหม": 984,
      "วาง": 985,
      "รุ่น": 986,
      "แม่": 987,
      "ประช": 988,
      "ia": 989,
      "ชัย": 990,
      "ฝ่าย": 991,
      "ยาว": 992,
      "พา": 993,
      "เงิน": 994,
      "เผ": 995,
      "กรา": 996,
      "่วย": 997,
      "สัม": 998,
      "ชัน": 999,
      "สู่": 1000,
      "ีย์": 1001,
      "ทางการ": 1002,
      "วิชา": 1003,
      "ผลิต": 1004,
      "ศาส": 1005,
      "ir": 1006,
      "มะ": 1007,
      "ทา": 1008,
      "้าร": 1009,
      "op": 1010,
      "เส้น": 1011,
      "Ch": 1012,
      "ั้ม": 1013,
      "กุม": 1014,
      "นาม": 1015,
      "คู่": 1016,
      "วร": 1017,
      "รัฐมนตรี": 1018,
      "ซู": 1019,
      "เท่า": 1020,
      "od": 1021,
      "หนัง": 1022,
      "แชมป์": 1023,
      "ไล": 1024,
      "สถา": 1025,
      "เคย": 1026,
      "ราษฎ": 1027,
      "ได้แก่": 1028,
      "มุ": 1029,
      "เนื้อ": 1030,
      "สโม": 1031,
      "ท่า": 1032,
      "สโมสร": 1033,
      "แรง": 1034,
      "็ง": 1035,
      "วัง": 1036,
      "สัต": 1037,
      "มือ": 1038,
      "เนีย": 1039,
      "ากร": 1040,
      "ปริ": 1041,
      "นาคม": 1042,
      "แบ่ง": 1043,
      "วะ": 1044,
      "บริหาร": 1045,
      "จริ": 1046,
      "ษฐ": 1047,
      "เนื่องจาก": 1048,
      "นิยม": 1049,
      "สาขา": 1050,
      "ผลง": 1051,
      "ผลงาน": 1052,
      "ลักษณะ": 1053,
      "พิม": 1054,
      "ข้อ": 1055,
      "คิด": 1056,
      "พ์": 1057,
      "ทร์": 1058,
      "ี้ย": 1059,
      "em": 1060,
      "ประกาศ": 1061,
      "ไอ": 1062,
      "วรรษ": 1063,
      "ดาว": 1064,
      "ท้าย": 1065,
      "รัส": 1066,
      "อัลบ": 1067,
      "ดิ์": 1068,
      "ตะวันออก": 1069,
      "ประธาน": 1070,
      "หน้าที่": 1071,
      "อนุ": 1072,
      "บัญ": 1073,
      "อร": 1074,
      "ทาน": 1075,
      "St": 1076,
      "ดูก": 1077,
      "ตุลา": 1078,
      "ค่า": 1079,
      "ay": 1080,
      "เชื่อ": 1081,
      "ิ่น": 1082,
      "คง": 1083,
      "เพราะ": 1084,
      "เกล": 1085,
      "ปราก": 1086,
      "กะ": 1087,
      "ชนิด": 1088,
      "ทิศ": 1089,
      "ข้า": 1090,
      "อัลบั้ม": 1091,
      "ec": 1092,
      "บรม": 1093,
      "โครง": 1094,
      "ธาร": 1095,
      "จุด": 1096,
      "พาะ": 1097,
      "เฉพาะ": 1098,
      "ลีก": 1099,
      "ื่อน": 1100,
      "ยุค": 1101,
      "่อน": 1102,
      "ปา": 1103,
      "วุ": 1104,
      "อาหาร": 1105,
      "พลัง": 1106,
      "แห่งชาติ": 1107,
      "In": 1108,
      "ครั้งแรก": 1109,
      "ut": 1110,
      "ตู": 1111,
      "ชาวไทย": 1112,
      "โป": 1113,
      "อายุ": 1114,
      "ตัด": 1115,
      "เศษ": 1116,
      "ist": 1117,
      "กรรมการ": 1118,
      "ปิก": 1119,
      "เข้าร": 1120,
      "ปรากฏ": 1121,
      "เวณ": 1122,
      "อาณาจักร": 1123,
      "เชีย": 1124,
      "พิมพ์": 1125,
      "เป็นที่": 1126,
      "oc": 1127,
      "ers": 1128,
      "เนิน": 1129,
      "มีนาคม": 1130,
      "เกาะ": 1131,
      "สัตว์": 1132,
      "ธัน": 1133,
      "ียญ": 1134,
      "บริเวณ": 1135,
      "นอกจาก": 1136,
      "มัก": 1137,
      "จริง": 1138,
      "วิน": 1139,
      "การ์": 1140,
      "ี่ยม": 1141,
      "พร้อม": 1142,
      "อาร์": 1143,
      "รั่ง": 1144,
      "สิ้น": 1145,
      "ทรวง": 1146,
      "การเลือกตั้ง": 1147,
      "ตั้งอยู่": 1148,
      "ฮา": 1149,
      "เร็จ": 1150,
      "สำเร็จ": 1151,
      "รัช": 1152,
      "พันธุ": 1153,
      "ณี": 1154,
      "เลิ": 1155,
      "ครอบ": 1156,
      "ตุลาคม": 1157,
      "ฝรั่ง": 1158,
      "ธันวา": 1159,
      "เหร": 1160,
      "กระทรวง": 1161,
      "เมษ": 1162,
      "เมษายน": 1163,
      "าคม": 1164,
      "ธันวาคม": 1165,
      "ียม": 1166,
      "สิงหา": 1167,
      "ข้อมูล": 1168,
      "ign": 1169,
      "อั": 1170,
      "ยายน": 1171,
      "กันยายน": 1172,
      "บดี": 1173,
      "ปรา": 1174,
      "แดน": 1175,
      "รัฐบาล": 1176,
      "สิงหาคม": 1177,
      "ิว": 1178,
      "ทั่วไป": 1179,
      "ปลา": 1180,
      "พู": 1181,
      "โพ": 1182,
      "ษย์": 1183,
      "จิก": 1184,
      "รักษา": 1185,
      "จัน": 1186,
      "แผ่น": 1187,
      "กาย": 1188,
      "สัญญา": 1189,
      "สถานี": 1190,
      "ตรง": 1191,
      "สือ": 1192,
      "สังกัด": 1193,
      "สนาม": 1194,
      "แดง": 1195,
      "ศูน": 1196,
      "แยก": 1197,
      "เป็นการ": 1198,
      "ศูนย์": 1199,
      "อาคาร": 1200,
      "ศาสนา": 1201,
      "ันธ์": 1202,
      "คะ": 1203,
      "อเมริกา": 1204,
      "มกรา": 1205,
      "มกราคม": 1206,
      "กรกฎ": 1207,
      "พฤษ": 1208,
      "สาว": 1209,
      "ป่า": 1210,
      "เกี่ยวกับ": 1211,
      "ถนน": 1212,
      "เศส": 1213,
      "หน่วย": 1214,
      "กรกฎาคม": 1215,
      "ผู้แทน": 1216,
      "ฝรั่งเศส": 1217,
      "ราว": 1218,
      "เกา": 1219,
      "แผน": 1220,
      "พฤษภา": 1221,
      "ดนตรี": 1222,
      "นอ": 1223,
      "แฟ": 1224,
      "๊ก": 1225,
      "ห้อง": 1226,
      "โอล": 1227,
      "หนังสือ": 1228,
      "สาธาร": 1229,
      "est": 1230,
      "ค้า": 1231,
      "โช": 1232,
      "เหรียญ": 1233,
      "พฤษภาคม": 1234,
      "แอน": 1235,
      "ยาม": 1236,
      "อเมริกัน": 1237,
      "ราชวงศ์": 1238,
      "ศิ": 1239,
      "คอน": 1240,
      "แม้": 1241,
      "เวอร์": 1242,
      "ร่าง": 1243,
      "ht": 1244,
      "ลาด": 1245,
      "ียบ": 1246,
      "ราษฎร": 1247,
      "กรุงเทพ": 1248,
      "กาล": 1249,
      "ภายใน": 1250,
      "ตะวันตก": 1251,
      "ิดา": 1252,
      "โอลิม": 1253,
      "กองทัพ": 1254,
      "ip": 1255,
      "หนด": 1256,
      "เลิศ": 1257,
      "ดำเนิน": 1258,
      "วัฒ": 1259,
      "แปลง": 1260,
      "เด็ก": 1261,
      "ตัน": 1262,
      "ทำงาน": 1263,
      "เกีย": 1264,
      "เอา": 1265,
      "ขอ": 1266,
      "ใบ": 1267,
      "จา": 1268,
      "ศักดิ์": 1269,
      "พันธุ์": 1270,
      "ล้าน": 1271,
      "หลี": 1272,
      "โอลิมปิก": 1273,
      "พฤศ": 1274,
      "พฤศจิก": 1275,
      "กลาย": 1276,
      "พฤศจิกายน": 1277,
      "ถุน": 1278,
      "ไข": 1279,
      "เลข": 1280,
      "เดียวกัน": 1281,
      "ตล": 1282,
      "คริสต์": 1283,
      "เวีย": 1284,
      "มั": 1285,
      "ชีพ": 1286,
      "การเมือง": 1287,
      "มิถุน": 1288,
      "มิถุนายน": 1289,
      "มาร์": 1290,
      "สกุล": 1291,
      "ทะเล": 1292,
      "ท้อง": 1293,
      "รูปแบบ": 1294,
      "ปัญ": 1295,
      "กล้": 1296,
      "นับ": 1297,
      "ยาน": 1298,
      "สุข": 1299,
      "ผิด": 1300,
      "่อม": 1301,
      "สุดท้าย": 1302,
      "col": 1303,
      "ข้าง": 1304,
      "ov": 1305,
      "sp": 1306,
      "ร้อน": 1307,
      "เยอร": 1308,
      "เสียชีวิต": 1309,
      "ไฟล์": 1310,
      "บุตร": 1311,
      "ไต": 1312,
      "กำหนด": 1313,
      "ภาพันธ์": 1314,
      "กุมภาพันธ์": 1315,
      "ภั": 1316,
      "พิเศษ": 1317,
      "สังคม": 1318,
      "ce": 1319,
      "เทค": 1320,
      "เกาหลี": 1321,
      "หว": 1322,
      "เหลือ": 1323,
      "มนุ": 1324,
      "เข้าร่วม": 1325,
      "ัพ": 1326,
      "เซอร์": 1327,
      "นายก": 1328,
      "เภท": 1329,
      "พ่อ": 1330,
      "พิธี": 1331,
      "สู้": 1332,
      "ริม": 1333,
      "og": 1334,
      "็อก": 1335,
      "ฤดูก": 1336,
      "ฤดูกาล": 1337,
      "สอน": 1338,
      "ประเภท": 1339,
      "แมน": 1340,
      "แนน": 1341,
      "มอ": 1342,
      "ปฏิบัติ": 1343,
      "ab": 1344,
      "เหล่า": 1345,
      "เคล": 1346,
      "ภัย": 1347,
      "เดีย": 1348,
      "โรค": 1349,
      "ริยา": 1350,
      "ate": 1351,
      "ษัต": 1352,
      "ยิ": 1353,
      "่ำ": 1354,
      "ผู้แทนราษฎร": 1355,
      "ow": 1356,
      "ก่อตั้ง": 1357,
      "ศาล": 1358,
      "ลอง": 1359,
      "เตร": 1360,
      "เชื้อ": 1361,
      "ริย์": 1362,
      "สภาผู้แทนราษฎร": 1363,
      "ระยะ": 1364,
      "ฤดู": 1365,
      "นต์": 1366,
      "ak": 1367,
      "จักรพรร": 1368,
      "ษัตริย์": 1369,
      "หนอง": 1370,
      "แซ": 1371,
      "ไท": 1372,
      "ฐานะ": 1373,
      "รวจ": 1374,
      "กู": 1375,
      "เศร": 1376,
      "ชอบ": 1377,
      "ดร": 1378,
      "เชียง": 1379,
      "ประวัติศาสตร์": 1380,
      "นาจ": 1381,
      "ปลาย": 1382,
      "ang": 1383,
      "ใกล้": 1384,
      "เหมือน": 1385,
      "ธุ": 1386,
      "รายชื่อ": 1387,
      "ฮิ": 1388,
      "คะแนน": 1389,
      "ถิ่น": 1390,
      "คอม": 1391,
      "แม่น": 1392,
      "บับ": 1393,
      "บุญ": 1394,
      "บัง": 1395,
      "ภิ": 1396,
      "พี": 1397,
      "ท่าน": 1398,
      "จู": 1399,
      "ชนะเลิศ": 1400,
      "ารา": 1401,
      "align": 1402,
      "แจ": 1403,
      "ft": 1404,
      "ครู": 1405,
      "เอ็ม": 1406,
      "ป้อง": 1407,
      "เอส": 1408,
      "ตรา": 1409,
      "มหาน": 1410,
      "คอ": 1411,
      "ชุม": 1412,
      "แต่ละ": 1413,
      "อำนาจ": 1414,
      "ออกอากาศ": 1415,
      "็อ": 1416,
      "เปอร์": 1417,
      "ถ่าย": 1418,
      "ักษ์": 1419,
      "จับ": 1420,
      "ไน": 1421,
      "การปกครอง": 1422,
      "ess": 1423,
      "tr": 1424,
      "ฉบับ": 1425,
      "กรณ์": 1426,
      "ยี": 1427,
      "สาธารณ": 1428,
      "เว็บ": 1429,
      "พัน": 1430,
      "ine": 1431,
      "ษ์": 1432,
      "เชิง": 1433,
      "เติ": 1434,
      "ศต": 1435,
      "็ต": 1436,
      "เกษ": 1437,
      "แตก": 1438,
      "ณฑ์": 1439,
      "ขน": 1440,
      "ดำรง": 1441,
      "นัด": 1442,
      "ออกจาก": 1443,
      "ศตวรรษ": 1444,
      "สิทธิ์": 1445,
      "ทุ": 1446,
      "ร้อย": 1447,
      "ภรณ์": 1448,
      "for": 1449,
      "โฮ": 1450,
      "ดังกล่าว": 1451,
      "คุม": 1452,
      "เกล้า": 1453,
      "ประส": 1454,
      "ใด": 1455,
      "คัด": 1456,
      "พอ": 1457,
      "แพร": 1458,
      "ธา": 1459,
      "ตัวละคร": 1460,
      "ประกอบด้วย": 1461,
      "จอม": 1462,
      "ับสน": 1463,
      "แพทย": 1464,
      "ard": 1465,
      "มวย": 1466,
      "สวน": 1467,
      "จนถึง": 1468,
      "ตาล": 1469,
      "พง": 1470,
      "ประตู": 1471,
      "เก่า": 1472,
      "ตลอด": 1473,
      "แม่น้ำ": 1474,
      "สมาชิกสภาผู้แทนราษฎร": 1475,
      "ลิง": 1476,
      "EE": 1477,
      "พวกเขา": 1478,
      "ฟิ": 1479,
      "ลักษณ์": 1480,
      "ธิการ": 1481,
      "พระยา": 1482,
      "ประชาชน": 1483,
      "อักษ": 1484,
      "วัต": 1485,
      "วรรณ": 1486,
      "นอกจากนี้": 1487,
      "สื": 1488,
      "ub": 1489,
      "ควบ": 1490,
      "av": 1491,
      "ญญา": 1492,
      "บาย": 1493,
      "to": 1494,
      "เดินทาง": 1495,
      "มากกว่า": 1496,
      "ฉาย": 1497,
      "วิธี": 1498,
      "ตระ": 1499,
      "น่า": 1500,
      "จักรพรรดิ": 1501,
      "มนุษย์": 1502,
      "ลำดับ": 1503,
      "บิ": 1504,
      "ย้าย": 1505,
      "นักร้อง": 1506,
      "มาร": 1507,
      "อักษร": 1508,
      "เศรษฐ": 1509,
      "ตาย": 1510,
      "ปรับ": 1511,
      "รถไฟ": 1512,
      "จบ": 1513,
      "ew": 1514,
      "ดอก": 1515,
      "รวมถึง": 1516,
      "ทู": 1517,
      "แสง": 1518,
      "วล": 1519,
      "ทรั": 1520,
      "กลายเป็น": 1521,
      "te": 1522,
      "หนัก": 1523,
      "เทศบาล": 1524,
      "ขาย": 1525,
      "เดอะ": 1526,
      "ศิลปิน": 1527,
      "ที่สอง": 1528,
      "พระพุทธ": 1529,
      "วัฒน": 1530,
      "ดุ": 1531,
      "รติ": 1532,
      "jp": 1533,
      "ั่ว": 1534,
      "กำกับ": 1535,
      "สำนักงาน": 1536,
      "วิทยาศาสตร์": 1537,
      "มง": 1538,
      "บวน": 1539,
      "ปาก": 1540,
      "อุป": 1541,
      "บริการ": 1542,
      "เดอร์": 1543,
      "รู้จัก": 1544,
      "สี่": 1545,
      "ในขณะ": 1546,
      "ธิบดี": 1547,
      "ity": 1548,
      "ร่วมกับ": 1549,
      "ราม": 1550,
      "ราชอาณาจักร": 1551,
      "ประชากร": 1552,
      "น้อง": 1553,
      "เสนอ": 1554,
      "all": 1555,
      "สนับสน": 1556,
      "สนับสนุน": 1557,
      "องค์การ": 1558,
      "จัดการ": 1559,
      "โรป": 1560,
      "ขุน": 1561,
      "เยี่ยม": 1562,
      "ส่วนใหญ่": 1563,
      "ลล์": 1564,
      "แผ่นดิน": 1565,
      "สึ": 1566,
      "jpg": 1567,
      "เหตุการณ์": 1568,
      "นู": 1569,
      "ราณ": 1570,
      "เอเชีย": 1571,
      "พยา": 1572,
      "โบราณ": 1573,
      "สมุ": 1574,
      "กฎหมาย": 1575,
      "เกิดขึ้น": 1576,
      "ได": 1577,
      "An": 1578,
      "จัย": 1579,
      "หมายถึง": 1580,
      "จำกัด": 1581,
      "วัย": 1582,
      "คณะกรรมการ": 1583,
      "จิต": 1584,
      "เกียรติ": 1585,
      "พี่": 1586,
      "ยิ่ง": 1587,
      "ian": 1588,
      "มหานคร": 1589,
      "หน่าย": 1590,
      "color": 1591,
      "ไซต์": 1592,
      "ou": 1593,
      "ยุโรป": 1594,
      "คลอง": 1595,
      "แพ้": 1596,
      "กว": 1597,
      "ep": 1598,
      "เร็": 1599,
      "ราชการ": 1600,
      "สัมพันธ์": 1601,
      "ออส": 1602,
      "ินี": 1603,
      "ok": 1604,
      "ว่าการ": 1605,
      "ซิง": 1606,
      "การแสดง": 1607,
      "ต่อไป": 1608,
      "สอบ": 1609,
      "้าว": 1610,
      "ชร": 1611,
      "รบ": 1612,
      "left": 1613,
      "ill": 1614,
      "สูงสุด": 1615,
      "จำหน่าย": 1616,
      "ยอม": 1617,
      "มีชื่อ": 1618,
      "แพร่": 1619,
      "สื่อ": 1620,
      "Pr": 1621,
      "eb": 1622,
      "็อง": 1623,
      "นก": 1624,
      "มอง": 1625,
      "แก้ว": 1626,
      "สถาบัน": 1627,
      "สั": 1628,
      "ลู": 1629,
      "สูตร": 1630,
      "เกิล": 1631,
      "ราบ": 1632,
      "ครัว": 1633,
      "นิว": 1634,
      "เร็ว": 1635,
      "ข่าว": 1636,
      "ป้องกัน": 1637,
      "มณฑ": 1638,
      "ใส": 1639,
      "ภายใต้": 1640,
      "ัติ": 1641,
      "ดอน": 1642,
      "ก่อสร้าง": 1643,
      "ริน": 1644,
      "คล้าย": 1645,
      "ดม": 1646,
      "อาชีพ": 1647,
      "เลีย": 1648,
      "ลด": 1649,
      "ริญ": 1650,
      "มาย": 1651,
      "เข้ามา": 1652,
      "คดี": 1653,
      "พยาบาล": 1654,
      "สถาป": 1655,
      "พระราชทาน": 1656,
      "จักรว": 1657,
      "คิ": 1658,
      "ยุทธ": 1659,
      "ทั้งสอง": 1660,
      "ธุร": 1661,
      "เว็บไซต์": 1662,
      "ติดต่อ": 1663,
      "ออกมา": 1664,
      "สมเด็จพระ": 1665,
      "รอ": 1666,
      "ens": 1667,
      "ct": 1668,
      "ที่อยู่": 1669,
      "หิน": 1670,
      "ศัย": 1671,
      "ขับ": 1672,
      "แปล": 1673,
      "ล่า": 1674,
      "ก็ได้": 1675,
      "เป็นต้น": 1676,
      "ดีโอ": 1677,
      "ber": 1678,
      "สมุทร": 1679,
      "ควบคุม": 1680,
      "พย์": 1681,
      "Th": 1682,
      "ฟอร์": 1683,
      "เกิน": 1684,
      "พย": 1685,
      "สั่ง": 1686,
      "ธง": 1687,
      "ยังมี": 1688,
      "ทวี": 1689,
      "ด็จ": 1690,
      "ิญ": 1691,
      "แฮ": 1692,
      "Sh": 1693,
      "เวิ": 1694,
      "านุ": 1695,
      "เคลื่อน": 1696,
      "ค้น": 1697,
      "ตำรวจ": 1698,
      "มิว": 1699,
      "่วง": 1700,
      "ดวง": 1701,
      "สถานที่": 1702,
      "มณฑล": 1703,
      "เทคโน": 1704,
      "ial": 1705,
      "ev": 1706,
      "มัง": 1707,
      "สาท": 1708,
      "รัสเซีย": 1709,
      "ก็ตาม": 1710,
      "เดน": 1711,
      "ฝั่ง": 1712,
      "อีกครั้ง": 1713,
      "หม่อม": 1714,
      "วัฒนธรรม": 1715,
      "art": 1716,
      "นายกรัฐมนตรี": 1717,
      "ฝึก": 1718,
      "มัธ": 1719,
      "โลยี": 1720,
      "เทคโนโลยี": 1721,
      "อย่างไร": 1722,
      "alignleft": 1723,
      "รัง": 1724,
      "ปกติ": 1725,
      "ธุรกิจ": 1726,
      "ิร์ต": 1727,
      "สเตอร์": 1728,
      "เจริญ": 1729,
      "Ar": 1730,
      "สืบ": 1731,
      "กิโล": 1732,
      "ory": 1733,
      "Un": 1734,
      "ขาว": 1735,
      "ชาร์": 1736,
      "อาร": 1737,
      "แพทย์": 1738,
      "ยศ": 1739,
      "ปัญหา": 1740,
      "ต่อสู้": 1741,
      "หาย": 1742,
      "อาศัย": 1743,
      "กรุงเทพมหานคร": 1744,
      "มร": 1745,
      "ive": 1746,
      "กว้าง": 1747,
      "ระบุ": 1748,
      "ทึก": 1749,
      "สหรัฐอเมริกา": 1750,
      "ห้า": 1751,
      "เต็ม": 1752,
      "อินเดีย": 1753,
      "เสริม": 1754,
      "เพื่อน": 1755,
      "ฟา": 1756,
      "นะ": 1757,
      "ud": 1758,
      "ra": 1759,
      "ell": 1760,
      "เท่านั้น": 1761,
      "มัธยม": 1762,
      "เก็บ": 1763,
      "เลี้ย": 1764,
      "วิดีโอ": 1765,
      "คู": 1766,
      "ธิป": 1767,
      "วจ": 1768,
      "อิสริยา": 1769,
      "อิสริยาภรณ์": 1770,
      "เที่": 1771,
      "เที่ย": 1772,
      "หัวหน้า": 1773,
      "เผย": 1774,
      "แข็ง": 1775,
      "หาก": 1776,
      "sh": 1777,
      "เจ้าชาย": 1778,
      "อัต": 1779,
      "ปิ": 1780,
      "กิน": 1781,
      "จัดตั้ง": 1782,
      "ประสบ": 1783,
      "คืน": 1784,
      "ดำรงตำแหน่ง": 1785,
      "ยอดเยี่ยม": 1786,
      "if": 1787,
      "ข้อง": 1788,
      "เลือด": 1789,
      "สรร": 1790,
      "ตัดสิน": 1791,
      "ไฮ": 1792,
      "แถ": 1793,
      "เชิญ": 1794,
      "ite": 1795,
      "กิโลเมตร": 1796,
      "ภัณฑ์": 1797,
      "จร": 1798,
      "พูด": 1799,
      "ทุน": 1800,
      "ตาร": 1801,
      "ม์": 1802,
      "เอฟ": 1803,
      "เบอร์": 1804,
      "โครงการ": 1805,
      "แย": 1806,
      "สวรร": 1807,
      "อู": 1808,
      "ียร์": 1809,
      "ระเบ": 1810,
      "ากล": 1811,
      "พัก": 1812,
      "ถ้า": 1813,
      "เจน": 1814,
      "ตอบ": 1815,
      "คลุม": 1816,
      "bg": 1817,
      "ิเม": 1818,
      "โจม": 1819,
      "ort": 1820,
      "หย": 1821,
      "ราะห์": 1822,
      "พาก": 1823,
      "ต่างๆ": 1824,
      "สเป": 1825,
      "นักกีฬา": 1826,
      "คี": 1827,
      "ight": 1828,
      "ดังนี้": 1829,
      "บันทึก": 1830,
      "เรา": 1831,
      "ยนต์": 1832,
      "bgcolor": 1833,
      "ออสเตร": 1834,
      "Al": 1835,
      "เสด็จ": 1836,
      "ทั่ง": 1837,
      "ละครโทรทัศน์": 1838,
      "ร้าย": 1839,
      "ธานี": 1840,
      "เอ็น": 1841,
      "เคราะห์": 1842,
      "วิจัย": 1843,
      "สาธารณรัฐ": 1844,
      "เกี่ยวข้อง": 1845,
      "กูล": 1846,
      "ออกแบบ": 1847,
      "fr": 1848,
      "ทัน": 1849,
      "up": 1850,
      "วิหาร": 1851,
      "ที่เกิด": 1852,
      "จากนั้น": 1853,
      "กอ": 1854,
      "ฟู": 1855,
      "ตระกูล": 1856,
      "สมั": 1857,
      "ต้องการ": 1858,
      "วาย": 1859,
      "เวล": 1860,
      "ตรวจ": 1861,
      "ชื่อว่า": 1862,
      "วุธ": 1863,
      "กระทั่ง": 1864,
      "สิก": 1865,
      "เป็นทางการ": 1866,
      "เฉียง": 1867,
      "ชั่น": 1868,
      "คับ": 1869,
      "ae": 1870,
      "าช": 1871,
      "มิตร": 1872,
      "แหล่ง": 1873,
      "end": 1874,
      "กลับมา": 1875,
      "ยึ": 1876,
      "ตลาด": 1877,
      "สมรส": 1878,
      "ลอ": 1879,
      "ธาตุ": 1880,
      "ข้าม": 1881,
      "สภาพ": 1882,
      "จอ": 1883,
      "ชู": 1884,
      "นั่ง": 1885,
      "รีส์": 1886,
      "ib": 1887,
      "เจ้าหญิง": 1888,
      "เลี้ยง": 1889,
      "ธยา": 1890,
      "บัณฑ": 1891,
      "เลย": 1892,
      "ตาราง": 1893,
      "หมู่บ้าน": 1894,
      "วัตถ": 1895,
      "ong": 1896,
      "ม่า": 1897,
      "ียด": 1898,
      "ราชา": 1899,
      "หอ": 1900,
      "ary": 1901,
      "ซิงเกิล": 1902,
      "กระจ": 1903,
      "เพชร": 1904,
      "บัณฑิต": 1905,
      "มอน": 1906,
      "พืช": 1907,
      "ธิดา": 1908,
      "เกษตร": 1909,
      "บอก": 1910,
      "เด่น": 1911,
      "ยังคง": 1912,
      "คัดเลือก": 1913,
      "โอรส": 1914,
      "ยิง": 1915,
      "ซีรีส์": 1916,
      "จันทร์": 1917,
      "สมาคม": 1918,
      "ไช": 1919,
      "เป็นหนึ่ง": 1920,
      "ทด": 1921,
      "แก้": 1922,
      "ยึด": 1923,
      "คต": 1924,
      "ศิลปะ": 1925,
      "our": 1926,
      "กรี": 1927,
      "Tr": 1928,
      "คาร์": 1929,
      "เซน": 1930,
      "ทำการ": 1931,
      "ลิม": 1932,
      "นัน": 1933,
      "โกะ": 1934,
      "าธิบดี": 1935,
      "ประชุม": 1936,
      "ชั่ว": 1937,
      "com": 1938,
      "ik": 1939,
      "ฤดูร้อน": 1940,
      "ภายหลัง": 1941,
      "ครอบครัว": 1942,
      "โอก": 1943,
      "ทศ": 1944,
      "เชื่อม": 1945,
      "อยุ": 1946,
      "เที่ยว": 1947,
      "งาม": 1948,
      "ปล่อย": 1949,
      "ph": 1950,
      "พยาย": 1951,
      "พยายาม": 1952,
      "อาทิ": 1953,
      "ทุ่ง": 1954,
      "มูล": 1955,
      "ซอ": 1956,
      "ราชอิสริยาภรณ์": 1957,
      "เครื่องราชอิสริยาภรณ์": 1958,
      "นุ": 1959,
      "ล้อม": 1960,
      "บังคับ": 1961,
      "ob": 1962,
      "ติก": 1963,
      "ตนเอง": 1964,
      "สิบ": 1965,
      "สมัคร": 1966,
      "สล": 1967,
      "เบล": 1968,
      "วัตถุ": 1969,
      "ลด์": 1970,
      "อยุธยา": 1971,
      "ดินแดน": 1972,
      "ก์": 1973,
      "de": 1974,
      "เนิด": 1975,
      "ทีวี": 1976,
      "จิตร": 1977,
      "ตัวอย่าง": 1978,
      "กำเนิด": 1979,
      "ปิด": 1980,
      "จิน": 1981,
      "ปืน": 1982,
      "ส่วนหนึ่ง": 1983,
      "ลุ": 1984,
      "หนา": 1985,
      "ant": 1986,
      "ขยาย": 1987,
      "ค่าย": 1988,
      "การพัฒนา": 1989,
      "ผสม": 1990,
      "รัต": 1991,
      "นักฟุตบอล": 1992,
      "บัญชา": 1993,
      "งา": 1994,
      "ตูน": 1995,
      "ue": 1996,
      "เข้าสู่": 1997,
      "พาน": 1998,
      "โตะ": 1999,
      "ือก": 2000,
      "ขนาดใหญ่": 2001,
      "เริ่มต้น": 2002,
      "ai": 2003,
      "แต่งตั้ง": 2004,
      "itle": 2005,
      "มู": 2006,
      "บทบาท": 2007,
      "ฆ์": 2008,
      "ซุ": 2009,
      "นักเรียน": 2010,
      "ผู": 2011,
      "เกาหลีใต้": 2012,
      "นว": 2013,
      "ie": 2014,
      "สากล": 2015,
      "ปริญญา": 2016,
      "ต้าน": 2017,
      "าส": 2018,
      "ประธานาธิบดี": 2019,
      "้นำ": 2020,
      "โดยเฉพาะ": 2021,
      "ies": 2022,
      "สยาม": 2023,
      "ทับ": 2024,
      "นานา": 2025,
      "สาห": 2026,
      "เชียงใหม่": 2027,
      "เรือน": 2028,
      "โจมตี": 2029,
      "ฎี": 2030,
      "กษัตริย์": 2031,
      "ขั้น": 2032,
      "En": 2033,
      "ประโย": 2034,
      "เยอรมัน": 2035,
      "อ่อน": 2036,
      "โฟ": 2037,
      "วอล": 2038,
      "เศรษฐกิจ": 2039,
      "ิติ": 2040,
      "ทวีป": 2041,
      "ไบ": 2042,
      "สมบัติ": 2043,
      "โรงพยาบาล": 2044,
      "จักรวรร": 2045,
      "ต่ำ": 2046,
      "บูรณ์": 2047,
      "การ์ตูน": 2048,
      "เปลี่ยนแปลง": 2049,
      "เทอร์": 2050,
      "โบสถ": 2051,
      "ใส่": 2052,
      "เข้าไป": 2053,
      "หมายเลข": 2054,
      "ารี": 2055,
      "ผู้นำ": 2056,
      "ท้องถิ่น": 2057,
      "สั้น": 2058,
      "หุ": 2059,
      "รวมทั้ง": 2060,
      "กง": 2061,
      "เพศ": 2062,
      "ทรัพย์": 2063,
      "ear": 2064,
      "ซาน": 2065,
      "ไฟฟ้า": 2066,
      "เซ็น": 2067,
      "ไหว": 2068,
      "งะ": 2069,
      "ดูแล": 2070,
      "มนี": 2071,
      "วร์": 2072,
      "ภูมิภาค": 2073,
      "อาการ": 2074,
      "เยอรมนี": 2075,
      "จักรวรรดิ": 2076,
      "นี่": 2077,
      "พน": 2078,
      "อาจาร": 2079,
      "ดาห์": 2080,
      "จน์": 2081,
      "ith": 2082,
      "ความสามารถ": 2083,
      "ww": 2084,
      "มอบ": 2085,
      "อาจารย์": 2086,
      "ราน": 2087,
      "มหาก": 2088,
      "ี่ยง": 2089,
      "ain": 2090,
      "ฟี": 2091,
      "เปร": 2092,
      "ธรรมชาติ": 2093,
      "เวท": 2094,
      "บาด": 2095,
      "ff": 2096,
      "วาส": 2097,
      "ตัวเอง": 2098,
      "เหล่านี้": 2099,
      "อย่างไรก็ตาม": 2100,
      "สว": 2101,
      "ริก": 2102,
      "und": 2103,
      "หลักสูตร": 2104,
      "้วย": 2105,
      "ประชาธิป": 2106,
      "bsp": 2107,
      "โปรด": 2108,
      "ตาลี": 2109,
      "age": 2110,
      "ish": 2111,
      "อิตาลี": 2112,
      "บิดา": 2113,
      "เจอร์": 2114,
      "ทัย": 2115,
      "ชุมชน": 2116,
      "อาวุธ": 2117,
      "รัตน": 2118,
      "เถ": 2119,
      "นวย": 2120,
      "เลย์": 2121,
      "ย่อย": 2122,
      "บัว": 2123,
      "ังก์": 2124,
      "บอ": 2125,
      "อำนวย": 2126,
      "ตอนที่": 2127,
      "เล่า": 2128,
      "ยืน": 2129,
      "ลิป": 2130,
      "ตย์": 2131,
      "จารย์": 2132,
      "็ค": 2133,
      "ช์": 2134,
      "ฮ์": 2135,
      "เครือ": 2136,
      "เทียบ": 2137,
      "โนะ": 2138,
      "เปิดตัว": 2139,
      "เกอร์": 2140,
      "รัม": 2141,
      "วัส": 2142,
      "ทำหน้าที่": 2143,
      "แช": 2144,
      "ans": 2145,
      "เติม": 2146,
      "จง": 2147,
      "พม่า": 2148,
      "โอกาส": 2149,
      "รายงาน": 2150,
      "หัส": 2151,
      "เหล็ก": 2152,
      "nbsp": 2153,
      "พิธ": 2154,
      "จำนวนมาก": 2155,
      "สัป": 2156,
      "สึก": 2157,
      "แม้ว่า": 2158,
      "ความรู้": 2159,
      "ออน": 2160,
      "มาตร": 2161,
      "สหราชอาณาจักร": 2162,
      "มีชีวิต": 2163,
      "ศพ": 2164,
      "ไก": 2165,
      "ord": 2166,
      "สงฆ์": 2167,
      "วาด": 2168,
      "สาน": 2169,
      "บัญญ": 2170,
      "มวล": 2171,
      "แคว": 2172,
      "สุน": 2173,
      "เล่ม": 2174,
      "ทำลาย": 2175,
      "ทศวรรษ": 2176,
      "ชิน": 2177,
      "อร์ด": 2178,
      "บัญญัติ": 2179,
      "Sp": 2180,
      "พระบรม": 2181,
      "องค์กร": 2182,
      "ld": 2183,
      "สัญลักษณ์": 2184,
      "คัพ": 2185,
      "ดัน": 2186,
      "amp": 2187,
      "จนกระทั่ง": 2188,
      "ครอบคลุม": 2189,
      "ทบ": 2190,
      "รับรางวัล": 2191,
      "ในขณะที่": 2192,
      "ลึก": 2193,
      "บวนการ": 2194,
      "อุดม": 2195,
      "ซึ": 2196,
      "ขัด": 2197,
      "อว": 2198,
      "ack": 2199,
      "นานาชาติ": 2200,
      "ควร": 2201,
      "ปะ": 2202,
      "แอร์": 2203,
      "มักจะ": 2204,
      "ธร": 2205,
      "ฮี": 2206,
      "พระมหาก": 2207,
      "เพื่อให้": 2208,
      "IS": 2209,
      "พายุ": 2210,
      "วอ": 2211,
      "ขาด": 2212,
      "สัปดาห์": 2213,
      "สีมา": 2214,
      "ประกวด": 2215,
      "ex": 2216,
      "เบิล": 2217,
      "มีชื่อเสียง": 2218,
      "ich": 2219,
      "ชัด": 2220,
      "ชน์": 2221,
      "สเปน": 2222,
      "เชื้อสาย": 2223,
      "ast": 2224,
      "ile": 2225,
      "บรา": 2226,
      "อุต": 2227,
      "ไหล": 2228,
      "คณ": 2229,
      "ก๊ก": 2230,
      "ฒิ": 2231,
      "รอย": 2232,
      "ช้าง": 2233,
      "บัล": 2234,
      "แอล": 2235,
      "ความสำเร็จ": 2236,
      "ื้น": 2237,
      "เคียง": 2238,
      "ซื้อ": 2239,
      "บริหารส่วน": 2240,
      "เซลล์": 2241,
      "ต่างประเทศ": 2242,
      "ทธิ์": 2243,
      "องค์การบริหารส่วน": 2244,
      "มากขึ้น": 2245,
      "ผ้า": 2246,
      "ไตย": 2247,
      "นักการเมือง": 2248,
      "บางส่วน": 2249,
      "แกรม": 2250,
      "กัม": 2251,
      "แด": 2252,
      "ซัน": 2253,
      "อภิ": 2254,
      "นอร์": 2255,
      "อุตสาห": 2256,
      "ime": 2257,
      "ช่วยเหลือ": 2258,
      "ครั้งนี้": 2259,
      "เสิร์ต": 2260,
      "ational": 2261,
      "เลอร์": 2262,
      "ect": 2263,
      "คอนเสิร์ต": 2264,
      "ge": 2265,
      "มารดา": 2266,
      "ล่าง": 2267,
      "Wor": 2268,
      "ฆ่า": 2269,
      "กรณี": 2270,
      "iz": 2271,
      "คัน": 2272,
      "ศักราช": 2273,
      "pr": 2274,
      "Mar": 2275,
      "หลังจากนั้น": 2276,
      "เอน": 2277,
      "สัย": 2278,
      "พร้อมกับ": 2279,
      "ภาษาอังกฤษ": 2280,
      "ฤษฎี": 2281,
      "ฟริ": 2282,
      "ใช่": 2283,
      "ass": 2284,
      "eg": 2285,
      "พระมหากษัตริย์": 2286,
      "โทษ": 2287,
      "ure": 2288,
      "Con": 2289,
      "อีกด้วย": 2290,
      "พิษ": 2291,
      "เบีย": 2292,
      "Or": 2293,
      "ประดิ": 2294,
      "hy": 2295,
      "พระชน": 2296,
      "โส": 2297,
      "ดนาม": 2298,
      "ประโยชน์": 2299,
      "อากาศยาน": 2300,
      "by": 2301,
      "ปรุง": 2302,
      "วาร": 2303,
      "สเต": 2304,
      "ห์น": 2305,
      "วุฒิ": 2306,
      "Pro": 2307,
      "นำมา": 2308,
      "ย่อ": 2309,
      "ศัพ": 2310,
      "โครงสร้าง": 2311,
      "คริสต์ศตวรรษ": 2312,
      "หยุ": 2313,
      "ox": 2314,
      "man": 2315,
      "ทูต": 2316,
      "ภาษ": 2317,
      "มุม": 2318,
      "Com": 2319,
      "เยาว": 2320,
      "เพล": 2321,
      "ความสัมพันธ์": 2322,
      "ly": 2323,
      "เลิก": 2324,
      "ื้อง": 2325,
      "บำ": 2326,
      "อิทธิ": 2327,
      "เวียดนาม": 2328,
      "แอฟริ": 2329,
      "ดำเนินการ": 2330,
      "จด": 2331,
      "นาถ": 2332,
      "เธอร์": 2333,
      "ัตร": 2334,
      "ใช้งาน": 2335,
      "โพธิ": 2336,
      "ivers": 2337,
      "ปฏิบัติการ": 2338,
      "ne": 2339,
      "อุตสาหกรรม": 2340,
      "ถา": 2341,
      "พลังงาน": 2342,
      "เบียน": 2343,
      "ไลน์": 2344,
      "สระ": 2345,
      "วิชาการ": 2346,
      "ผิว": 2347,
      "เฉลิม": 2348,
      "ัมภ": 2349,
      "ชีว": 2350,
      "เจ็บ": 2351,
      "มั่น": 2352,
      "ดารา": 2353,
      "ลม": 2354,
      "หลังจากที่": 2355,
      "io": 2356,
      "ใคร": 2357,
      "ัค": 2358,
      "หนี": 2359,
      "อนิเม": 2360,
      "เต็ด": 2361,
      "สถิติ": 2362,
      "เส้นทาง": 2363,
      "เวน": 2364,
      "ข้าว": 2365,
      "นิต": 2366,
      "อื่นๆ": 2367,
      "ณิ": 2368,
      "เกต": 2369,
      "เครื่องบิน": 2370,
      "รัชกาล": 2371,
      "เวิร์": 2372,
      "อนิเมะ": 2373,
      "เสมอ": 2374,
      "กระจาย": 2375,
      "ห่าง": 2376,
      "ยาง": 2377,
      "มงคล": 2378,
      "aw": 2379,
      "qu": 2380,
      "ศว": 2381,
      "มัธยมศึกษา": 2382,
      "ศัพท์": 2383,
      "ดังนั้น": 2384,
      "Fr": 2385,
      "จารณ์": 2386,
      "EEE": 2387,
      "สงครามโลก": 2388,
      "อธิ": 2389,
      "พระบาท": 2390,
      "ทราบ": 2391,
      "ment": 2392,
      "สงค์": 2393,
      "พระนาม": 2394,
      "ซูเปอร์": 2395,
      "ชิงแชมป์": 2396,
      "พิพิธ": 2397,
      "ฉาก": 2398,
      "ดะ": 2399,
      "ืด": 2400,
      "คาม": 2401,
      "รุน": 2402,
      "ร้าน": 2403,
      "บัตร": 2404,
      "เป็นที่รู้จัก": 2405,
      "พากย์": 2406,
      "ที่นั่ง": 2407,
      "ไพ": 2408,
      "นิค": 2409,
      "ธน": 2410,
      "แข่ง": 2411,
      "บาร์": 2412,
      "uc": 2413,
      "เรียง": 2414,
      "สตรี": 2415,
      "ชิ้น": 2416,
      "New": 2417,
      "ยาก": 2418,
      "Br": 2419,
      "วิจารณ์": 2420,
      "รัน": 2421,
      "ระเบิด": 2422,
      "ต่อต้าน": 2423,
      "ยัน": 2424,
      "หาราช": 2425,
      "ินส์": 2426,
      "พิจาร": 2427,
      "แกร": 2428,
      "สังหาร": 2429,
      "ตีพิมพ์": 2430,
      "มากมาย": 2431,
      "พิจารณา": 2432,
      "ตะวันออกเฉียง": 2433,
      "แฟน": 2434,
      "สมบูรณ์": 2435,
      "ore": 2436,
      "ยูไน": 2437,
      "ยูไนเต็ด": 2438,
      "from": 2439,
      "การเรียน": 2440,
      "เยาวชน": 2441,
      "หัวใจ": 2442,
      "เลน": 2443,
      "หวัง": 2444,
      "เพลิง": 2445,
      "อินโด": 2446,
      "เคน": 2447,
      "แคว้น": 2448,
      "ฟิลิป": 2449,
      "การผลิต": 2450,
      "วอลเลย์": 2451,
      "เข้าแข่งขัน": 2452,
      "Ro": 2453,
      "สะพาน": 2454,
      "กล้า": 2455,
      "ail": 2456,
      "ประสงค์": 2457,
      "ออฟ": 2458,
      "px": 2459,
      "เวียต": 2460,
      "bgcolorEEE": 2461,
      "อาจจะ": 2462,
      "เมน": 2463,
      "ical": 2464,
      "สนใจ": 2465,
      "ไกล": 2466,
      "แอฟริกา": 2467,
      "ทอด": 2468,
      "ทางหลวง": 2469,
      "ode": 2470,
      "รักษ์": 2471,
      "ฉัน": 2472,
      "ม้า": 2473,
      "พิว": 2474,
      "สหภาพ": 2475,
      "โซเวียต": 2476,
      "อาทิตย์": 2477,
      "อิทธิพล": 2478,
      "การทำงาน": 2479,
      "โข": 2480,
      "สด": 2481,
      "เบิร์": 2482,
      "วิก": 2483,
      "ลี่": 2484,
      "ธรรมนู": 2485,
      "ธรรมนูญ": 2486,
      "วอลเลย์บอล": 2487,
      "พรรณ": 2488,
      "ท่อง": 2489,
      "ond": 2490,
      "แพง": 2491,
      "สินค้า": 2492,
      "หง": 2493,
      "ให้บริการ": 2494,
      "มาน": 2495,
      "ภาวะ": 2496,
      "แกน": 2497,
      "tern": 2498,
      "วิทยุ": 2499,
      "โคล": 2500,
      "กิจกรรม": 2501,
      "ยกรรม": 2502,
      "Cl": 2503,
      "อ่าน": 2504,
      "ปุ": 2505,
      "ide": 2506,
      "ry": 2507,
      "หยุด": 2508,
      "เหลือง": 2509,
      "เสร": 2510,
      "ษฐาน": 2511,
      "โรมัน": 2512,
      "เสร็จ": 2513,
      "ออสเตรเลีย": 2514,
      "ยุติ": 2515,
      "ชล": 2516,
      "ซ้าย": 2517,
      "ah": 2518,
      "อุปกรณ์": 2519,
      "ame": 2520,
      "พระชนม์": 2521,
      "กิจการ": 2522,
      "รี่": 2523,
      "นิก": 2524,
      "ลับ": 2525,
      "เนอร์": 2526,
      "รุนแรง": 2527,
      "มีความ": 2528,
      "ug": 2529,
      "ลอน": 2530,
      "สิ้นสุด": 2531,
      "ติน": 2532,
      "สูญ": 2533,
      "นิยาย": 2534,
      "ace": 2535,
      "บก": 2536,
      "กิ่ง": 2537,
      "ฟ์": 2538,
      "เทน": 2539,
      "ตติ": 2540,
      "จอห์น": 2541,
      "As": 2542,
      "Am": 2543,
      "ชะ": 2544,
      "เขียว": 2545,
      "อำนวยการ": 2546,
      "องค์การบริหารส่วนตำบล": 2547,
      "เอียด": 2548,
      "เจ้าหน้าที่": 2549,
      "ไร่": 2550,
      "มิส": 2551,
      "ลาว": 2552,
      "ช่าง": 2553,
      "พงษ์": 2554,
      "เทศบาลตำบล": 2555,
      "พิวเตอร์": 2556,
      "ธนา": 2557,
      "ขนาดเล็ก": 2558,
      "คอมพิวเตอร์": 2559,
      "เกียว": 2560,
      "ฮ่อง": 2561,
      "ษก": 2562,
      "เรื่องราว": 2563,
      "ไค": 2564,
      "วิศว": 2565,
      "็กซ์": 2566,
      "Univers": 2567,
      "ราษฎร์": 2568,
      "จุล": 2569,
      "ยอมรับ": 2570,
      "ป่วย": 2571,
      "เกมส์": 2572,
      "โฆ": 2573,
      "ภาร": 2574,
      "ไชย": 2575,
      "แท้": 2576,
      "ละเอียด": 2577,
      "ปู": 2578,
      "จอร์": 2579,
      "World": 2580,
      "แตกต่าง": 2581,
      "พระนาง": 2582,
      "โร่": 2583,
      "ซิล": 2584,
      "ประสาท": 2585,
      "ทฤษฎี": 2586,
      "ium": 2587,
      "ประพันธ์": 2588,
      "เลื่อน": 2589,
      "กรุ": 2590,
      "สิริ": 2591,
      "้วน": 2592,
      "กล่าวว่า": 2593,
      "ร่างกาย": 2594,
      "ีบ": 2595,
      "เป็นครั้งแรก": 2596,
      "พระบาทสมเด็จพระ": 2597,
      "รัฐธรรมนูญ": 2598,
      "เป็นเวลา": 2599,
      "กั": 2600,
      "อัตรา": 2601,
      "สวรรค์": 2602,
      "พื้นฐาน": 2603,
      "ท่องเที่ยว": 2604,
      "็อน": 2605,
      "ด้วยกัน": 2606,
      "แสน": 2607,
      "สถาปัต": 2608,
      "Gr": 2609,
      "เดช": 2610,
      "เจ้าของ": 2611,
      "มุข": 2612,
      "ยุก": 2613,
      "ปฐ": 2614,
      "ต่างกัน": 2615,
      "Te": 2616,
      "อยู่หัว": 2617,
      "เป้า": 2618,
      "เมีย": 2619,
      "tp": 2620,
      "ทาย": 2621,
      "บูร": 2622,
      "ที่ดิน": 2623,
      "กระดูก": 2624,
      "ก่อนหน้า": 2625,
      "เหย": 2626,
      "เมอร์": 2627,
      "นิท": 2628,
      "ถือเป็น": 2629,
      "ขอบ": 2630,
      "สถาปัตยกรรม": 2631,
      "ง่าย": 2632,
      "เป็นตัว": 2633,
      "per": 2634,
      "ถวาย": 2635,
      "นั่น": 2636,
      "ฮัน": 2637,
      "เผยแพร่": 2638,
      "สิต": 2639,
      "ปาง": 2640,
      "ตำนาน": 2641,
      "เช่นกัน": 2642,
      "ทางการเมือง": 2643,
      "ชก": 2644,
      "ัวร์": 2645,
      "ผู้จัดการ": 2646,
      "II": 2647,
      "โดยสาร": 2648,
      "ล้ม": 2649,
      "โมง": 2650,
      "ตัดสินใจ": 2651,
      "ครึ่ง": 2652,
      "แขวง": 2653,
      "cl": 2654,
      "คอย": 2655,
      "เสนา": 2656,
      "กบ": 2657,
      "ath": 2658,
      "แน่น": 2659,
      "พิพิธภัณฑ์": 2660,
      "ปราสาท": 2661,
      "เสื้อ": 2662,
      "เตรียม": 2663,
      "ือบ": 2664,
      "หลักฐาน": 2665,
      "ลาม": 2666,
      "ศี": 2667,
      "ดีย์": 2668,
      "บรรดา": 2669,
      "บัญชาการ": 2670,
      "ร่วมกัน": 2671,
      "ire": 2672,
      "ญาต": 2673,
      "วัญ": 2674,
      "คาด": 2675,
      "ดาบ": 2676,
      "ประชาธิปไตย": 2677,
      "ศิษย์": 2678,
      "เบื้อง": 2679,
      "หลาก": 2680,
      "สุวรรณ": 2681,
      "ขวา": 2682,
      "การค้า": 2683,
      "เทิง": 2684,
      "ทั่วโลก": 2685,
      "http": 2686,
      "ผน": 2687,
      "เจดีย์": 2688,
      "วงการ": 2689,
      "เอช": 2690,
      "ปต์": 2691,
      "วน์": 2692,
      "ฟ่า": 2693,
      "เหมาะ": 2694,
      "มัส": 2695,
      "Bl": 2696,
      "ทิน": 2697,
      "pl": 2698,
      "เสือ": 2699,
      "กองกำลัง": 2700,
      "็อค": 2701,
      "รัตน์": 2702,
      "เย็น": 2703,
      "เดี่ยว": 2704,
      "ศูนย์กลาง": 2705,
      "เน็ต": 2706,
      "มติ": 2707,
      "ทำให้เกิด": 2708,
      "บะ": 2709,
      "เพิ่มเติม": 2710,
      "นิตย": 2711,
      "คริสต": 2712,
      "็อป": 2713,
      "ผี": 2714,
      "ey": 2715,
      "คลื่น": 2716,
      "เวย์": 2717,
      "สตาร์": 2718,
      "อธิบาย": 2719,
      "Sc": 2720,
      "ขณะที่": 2721,
      "ราชินี": 2722,
      "ลาน": 2723,
      "ครบ": 2724,
      "อต": 2725,
      "เป็นไป": 2726,
      "สูติ": 2727,
      "ประหาร": 2728,
      "ไต้": 2729,
      "การต่อสู้": 2730,
      "กัมพู": 2731,
      "หน่วยงาน": 2732,
      "ผู้หญิง": 2733,
      "แวด": 2734,
      "เคมี": 2735,
      "ประจำปี": 2736,
      "หลา": 2737,
      "กัมพูชา": 2738,
      "ประสบความสำเร็จ": 2739,
      "ขวาง": 2740,
      "คณิต": 2741,
      "รับเชิญ": 2742,
      "หะ": 2743,
      "อิสระ": 2744,
      "ขนส่ง": 2745,
      "ปฐม": 2746,
      "with": 2747,
      "นีเซีย": 2748,
      "ษฐ์": 2749,
      "สาขาวิชา": 2750,
      "กด": 2751,
      "เผ่า": 2752,
      "มุ่ง": 2753,
      "มหาราช": 2754,
      "Ph": 2755,
      "ปรับปรุง": 2756,
      "ทิ้ง": 2757,
      "ทราย": 2758,
      "เปีย": 2759,
      "oh": 2760,
      "ปรากฏตัว": 2761,
      "เน้น": 2762,
      "ข่าย": 2763,
      "act": 2764,
      "บัญชี": 2765,
      "รุก": 2766,
      "az": 2767,
      "นโย": 2768,
      "นโยบาย": 2769,
      "เว้น": 2770,
      "ที่ตั้ง": 2771,
      "ส่งเสริม": 2772,
      "ance": 2773,
      "โดด": 2774,
      "ุป": 2775,
      "นักเขียน": 2776,
      "ee": 2777,
      "แถบ": 2778,
      "Col": 2779,
      "ขวัญ": 2780,
      "ความคิด": 2781,
      "กลม": 2782,
      "เรียบ": 2783,
      "สรุป": 2784,
      "ตกล": 2785,
      "iss": 2786,
      "con": 2787,
      "ost": 2788,
      "ลาร์": 2789,
      "มาตรฐาน": 2790,
      "ประสูติ": 2791,
      "uk": 2792,
      "เอ็ด": 2793,
      "site": 2794,
      "ตกลง": 2795,
      "ท่าอากาศยาน": 2796,
      "บุก": 2797,
      "ปินส์": 2798,
      "ind": 2799,
      "โตเกียว": 2800,
      "อัคร": 2801,
      "ตาร์": 2802,
      "BN": 2803,
      "นิตยสาร": 2804,
      "หู": 2805,
      "ฮาร์": 2806,
      "ภูเขา": 2807,
      "web": 2808,
      "เพิ่มขึ้น": 2809,
      "ฟิลิปปินส์": 2810,
      "สงครามโลกครั้ง": 2811,
      "เหลี่ยม": 2812,
      "ค้นพบ": 2813,
      "จำเป็น": 2814,
      "แค่": 2815,
      "Bo": 2816,
      "ตี้": 2817,
      "ที่มา": 2818,
      "ฟื้น": 2819,
      "สวย": 2820,
      "แนวคิด": 2821,
      "รุ่ง": 2822,
      "แก่น": 2823,
      "มีส่วน": 2824,
      "ทะเบียน": 2825,
      "ผม": 2826,
      "att": 2827,
      "ในที่สุด": 2828,
      "ริย": 2829,
      "ปล้ำ": 2830,
      "จอมเกล้า": 2831,
      "หลง": 2832,
      "แชมป์โลก": 2833,
      "ทอ": 2834,
      "สิงห์": 2835,
      "เข้าใจ": 2836,
      "แรม": 2837,
      "สัญญาณ": 2838,
      "านิ": 2839,
      "พิธีกร": 2840,
      "ern": 2841,
      "แนะ": 2842,
      "ship": 2843,
      "ซุน": 2844,
      "เษก": 2845,
      "sc": 2846,
      "มาร์ก": 2847,
      "หัน": 2848,
      "vg": 2849,
      "Pl": 2850,
      "รอด": 2851,
      "กุฎ": 2852,
      "เขตเลือกตั้ง": 2853,
      "การปฏิ": 2854,
      "คอร์": 2855,
      "ศาสตรา": 2856,
      "University": 2857,
      "ach": 2858,
      "เหรียญทอง": 2859,
      "ฟต์": 2860,
      "เทียม": 2861,
      "เอล": 2862,
      "ต่อเนื่อง": 2863,
      "อนุญาต": 2864,
      "กระแส": 2865,
      "านุกรม": 2866,
      "Wr": 2867,
      "ลั": 2868,
      "แคล": 2869,
      "ออร์": 2870,
      "ห้วย": 2871,
      "พันธมิตร": 2872,
      "เวที": 2873,
      "เนื้อหา": 2874,
      "เสา": 2875,
      "รน": 2876,
      "ดอล": 2877,
      "จ่าย": 2878,
      "He": 2879,
      "เป็นสมาชิก": 2880,
      "พระนคร": 2881,
      "ampion": 2882,
      "คราว": 2883,
      "อาวาส": 2884,
      "กำแพง": 2885,
      "พรหม": 2886,
      "หมายเหตุ": 2887,
      "ณิช": 2888,
      "แวดล้อม": 2889,
      "การเปลี่ยนแปลง": 2890,
      "ปัญญา": 2891,
      "ใกล้เคียง": 2892,
      "ult": 2893,
      "คว้า": 2894,
      "บางครั้ง": 2895,
      "ไข่": 2896,
      "เจ้าอาวาส": 2897,
      "Fl": 2898,
      "ึกษา": 2899,
      "น้ำหนัก": 2900,
      "ศาลา": 2901,
      "จฉ": 2902,
      "สติ": 2903,
      "ปรึกษา": 2904,
      "ฟัน": 2905,
      "เลียน": 2906,
      "เสรี": 2907,
      "บาน": 2908,
      "ตั้งขึ้น": 2909,
      "ถือว่า": 2910,
      "Co": 2911,
      "เจ้าพระยา": 2912,
      "จุฬ": 2913,
      "หนุ่ม": 2914,
      "ปราบ": 2915,
      "เอาชนะ": 2916,
      "เซนต์": 2917,
      "inal": 2918,
      "บันเทิง": 2919,
      "นอง": 2920,
      "สมอง": 2921,
      "ดิโอ": 2922,
      "ดก": 2923,
      "เรน": 2924,
      "อินโดนีเซีย": 2925,
      "ศิลป์": 2926,
      "โภ": 2927,
      "หาง": 2928,
      "ทัล": 2929,
      "เรือง": 2930,
      "อร์ก": 2931,
      "นนท์": 2932,
      "ous": 2933,
      "ISBN": 2934,
      "Mus": 2935,
      "โต้": 2936,
      "แวร์": 2937,
      "รหัส": 2938,
      "มีผล": 2939,
      "โดยทั่วไป": 2940,
      "หลากหลาย": 2941,
      "ราคา": 2942,
      "สตู": 2943,
      "ระหว่างประเทศ": 2944,
      "คุ้ม": 2945,
      "ถม": 2946,
      "เจ้าฟ้า": 2947,
      "ทุม": 2948,
      "แย้ง": 2949,
      "โว": 2950,
      "ash": 2951,
      "เฉล": 2952,
      "สัก": 2953,
      "ทยาน": 2954,
      "นิกาย": 2955,
      "one": 2956,
      "อาณาเขต": 2957,
      "ภพ": 2958,
      "ศาสตราจารย์": 2959,
      "การบริหาร": 2960,
      "กัง": 2961,
      "ประทับ": 2962,
      "สปี": 2963,
      "นิติ": 2964,
      "กระบวนการ": 2965,
      "อัง": 2966,
      "ชาร์ต": 2967,
      "ics": 2968,
      "รรยา": 2969,
      "ผู้อำนวยการ": 2970,
      "ri": 2971,
      "คิม": 2972,
      "ียร": 2973,
      "กล่าวถึง": 2974,
      "โปรแกรม": 2975,
      "ฝน": 2976,
      "ช่วงเวลา": 2977,
      "ปลอด": 2978,
      "อุโบสถ": 2979,
      "ถัด": 2980,
      "อนา": 2981,
      "ฝัน": 2982,
      "ฤทธิ์": 2983,
      "อุทยาน": 2984,
      "ence": 2985,
      "รองชนะเลิศ": 2986,
      "eng": 2987,
      "พรรษา": 2988,
      "วาน": 2989,
      "ฆา": 2990,
      "ung": 2991,
      "ิร์น": 2992,
      "ซ้อน": 2993,
      "ส่วนตัว": 2994,
      "Champion": 2995,
      "ส่งผล": 2996,
      "Title": 2997,
      "สนธิ": 2998,
      "ร่วมมือ": 2999,
      "ร็อก": 3000,
      "ถึงแก่": 3001,
      "คำสั่ง": 3002,
      "สก": 3003,
      "ห้าม": 3004,
      "ธ์": 3005,
      "ไตร": 3006,
      "ไล่": 3007,
      "นักศึกษา": 3008,
      "กระทำ": 3009,
      "พระราชวัง": 3010,
      "ปลูก": 3011,
      "icial": 3012,
      "พนม": 3013,
      "วัฒนา": 3014,
      "มี่": 3015,
      "olog": 3016,
      "ต่อไปนี้": 3017,
      "กระทบ": 3018,
      "สุขภาพ": 3019,
      "ผู้กำกับ": 3020,
      "อัส": 3021,
      "ดัด": 3022,
      "enter": 3023,
      "เกร": 3024,
      "ุล": 3025,
      "เกือบ": 3026,
      "ความเร็ว": 3027,
      "se": 3028,
      "การนำ": 3029,
      "น้ำมัน": 3030,
      "ฟิก": 3031,
      "ปลด": 3032,
      "ward": 3033,
      "ฮ่องกง": 3034,
      "ื่อย": 3035,
      "Ep": 3036,
      "เข้ม": 3037,
      "พรี": 3038,
      "จ์": 3039,
      "จุฬาล": 3040,
      "สวัส": 3041,
      "บิล": 3042,
      "ความนิยม": 3043,
      "สุร": 3044,
      "ove": 3045,
      "มิน": 3046,
      "อีย": 3047,
      "พระครู": 3048,
      "สถาปนา": 3049,
      "เฟอร์": 3050,
      "no": 3051,
      "ศรีอยุธยา": 3052,
      "เหรียญรางวัล": 3053,
      "ลาส": 3054,
      "สำรวจ": 3055,
      "รวบ": 3056,
      "โพธิ์": 3057,
      "สามัญ": 3058,
      "time": 3059,
      "เมียร์": 3060,
      "ลอนดอน": 3061,
      "งกรณ์": 3062,
      "วิด": 3063,
      "เวียง": 3064,
      "เปรียบ": 3065,
      "จุฬาลงกรณ์": 3066,
      "มส์": 3067,
      "นำไป": 3068,
      "ไร้": 3069,
      "เดียวกับ": 3070,
      "สว่าง": 3071,
      "ต้า": 3072,
      "นิสต์": 3073,
      "ice": 3074,
      "ที่สาม": 3075,
      "ิปต์": 3076,
      "อียิปต์": 3077,
      "ank": 3078,
      "ทิศตะวันตก": 3079,
      "ุย": 3080,
      "วิศวกรรม": 3081,
      "การประกวด": 3082,
      "อะไร": 3083,
      "สตูดิโอ": 3084,
      "มหาสมุทร": 3085,
      "๋ว": 3086,
      "การประชุม": 3087,
      "อยาก": 3088,
      "การสอน": 3089,
      "co": 3090,
      "ในขณะนั้น": 3091,
      "ถึงแก่กรรม": 3092,
      "สิ่งก่อสร้าง": 3093,
      "ys": 3094,
      "แคนา": 3095,
      "Par": 3096,
      "ไหม": 3097,
      "เลเซีย": 3098,
      "แต่งงาน": 3099,
      "วัฒน์": 3100,
      "อวกาศ": 3101,
      "ลังก์": 3102,
      "ราก": 3103,
      "ณห": 3104,
      "gr": 3105,
      "ปริมาณ": 3106,
      "ประดับ": 3107,
      "เช่นเดียวกับ": 3108,
      "เบน": 3109,
      "มิวสิก": 3110,
      "ฟัง": 3111,
      "เจอ": 3112,
      "แคนาดา": 3113,
      "เจ้าอยู่หัว": 3114,
      "ธนาคาร": 3115,
      "ัช": 3116,
      "พารา": 3117,
      "แบร์": 3118,
      "โปรดเกล้า": 3119,
      "รับผิด": 3120,
      "ลัทธิ": 3121,
      "สนิท": 3122,
      "หนาว": 3123,
      "พระพุทธรูป": 3124,
      "ความเป็น": 3125,
      "สป": 3126,
      "ราชสีมา": 3127,
      "นครราชสีมา": 3128,
      "คนใน": 3129,
      "นาค": 3130,
      "ราชย์": 3131,
      "ภรรยา": 3132,
      "บัลลังก์": 3133,
      "ีร์": 3134,
      "เติบ": 3135,
      "เมืองหลวง": 3136,
      "คิว": 3137,
      "เทคนิค": 3138,
      "หมู่เกาะ": 3139,
      "มาเลเซีย": 3140,
      "idae": 3141,
      "ก้าว": 3142,
      "วดี": 3143,
      "ประสิทธิ": 3144,
      "ชั่วโมง": 3145,
      "ไพร": 3146,
      "อริ": 3147,
      "เวิลด์": 3148,
      "Championship": 3149,
      "สีแดง": 3150,
      "ก่อนที่จะ": 3151,
      "แก้ไข": 3152,
      "บาดเจ็บ": 3153,
      "ขุนนาง": 3154,
      "รัฐสภา": 3155,
      "ผู้เข้าแข่งขัน": 3156,
      "สื่อสาร": 3157,
      "ระยะเวลา": 3158,
      "ณุ": 3159,
      "หก": 3160,
      "Re": 3161,
      "เสียหาย": 3162,
      "ศัตร": 3163,
      "ina": 3164,
      "มาส": 3165,
      "are": 3166,
      "พงศ์": 3167,
      "ศัตรู": 3168,
      "ชำ": 3169,
      "ชาญ": 3170,
      "พี่น้อง": 3171,
      "เมนต์": 3172,
      "ซาร์": 3173,
      "ann": 3174,
      "ผา": 3175,
      "แนะนำ": 3176,
      "พระราชโอรส": 3177,
      "สังเกต": 3178,
      "ลเล": 3179,
      "สวรรคต": 3180,
      "ปลอดภัย": 3181,
      "ยง": 3182,
      "ร้อยละ": 3183,
      "วิธีการ": 3184,
      "รับผิดชอบ": 3185,
      "งบ": 3186,
      "ata": 3187,
      "เลขา": 3188,
      "รก": 3189,
      "มล": 3190,
      "ts": 3191,
      "อุณห": 3192,
      "ock": 3193,
      "ฉลอง": 3194,
      "ยอง": 3195,
      "les": 3196,
      "เหตุผล": 3197,
      "แจ้ง": 3198,
      "yp": 3199,
      "สิ้นพระชนม์": 3200,
      "สถานะ": 3201,
      "ประทาน": 3202,
      "ลอย": 3203,
      "ถัง": 3204,
      "วอร์": 3205,
      "พฤติ": 3206,
      "ทดลอง": 3207,
      "เมล": 3208,
      "ชื่น": 3209,
      "กิตติ": 3210,
      "มณ์": 3211,
      "ั้ว": 3212,
      "รรถ": 3213,
      "ction": 3214,
      "ver": 3215,
      "land": 3216,
      "ชีส์": 3217,
      "เคิล": 3218,
      "สถานีโทรทัศน์": 3219,
      "นาที": 3220,
      "คัมภ": 3221,
      "รัชสมัย": 3222,
      "ling": 3223,
      "สปีชีส์": 3224,
      "ลส์": 3225,
      "ออสเตรีย": 3226,
      "พระองค์เจ้า": 3227,
      "พัฒ": 3228,
      "ชิงชนะเลิศ": 3229,
      "mat": 3230,
      "Ex": 3231,
      "โฆษ": 3232,
      "เท้า": 3233,
      "วิ่ง": 3234,
      "ขอน": 3235,
      "รินทร์": 3236,
      "ix": 3237,
      "บอน": 3238,
      "als": 3239,
      "เคลื่อนไหว": 3240,
      "ตอ": 3241,
      "ition": 3242,
      "Le": 3243,
      "นอน": 3244,
      "รับรอง": 3245,
      "ฟรี": 3246,
      "สลาย": 3247,
      "กวน": 3248,
      "ถาม": 3249,
      "มาถึง": 3250,
      "ภัก": 3251,
      "คอมมิว": 3252,
      "นักบุญ": 3253,
      "หมุน": 3254,
      "ความผิด": 3255,
      "ork": 3256,
      "ดั้ง": 3257,
      "www": 3258,
      "ร้องเพลง": 3259,
      "Intern": 3260,
      "เติบโต": 3261,
      "รวบรวม": 3262,
      "ฟิล": 3263,
      "คอมมิวนิสต์": 3264,
      "ภารกิจ": 3265,
      "าท": 3266,
      "น้ำตาล": 3267,
      "กลา": 3268,
      "แขน": 3269,
      "คัมภีร์": 3270,
      "โบสถ์": 3271,
      "ปัก": 3272,
      "กษ์": 3273,
      "อล์": 3274,
      "เหลว": 3275,
      "ี้ยน": 3276,
      "หุ่น": 3277,
      "นิ้ว": 3278,
      "Sch": 3279,
      "แปร": 3280,
      "เป้าหมาย": 3281,
      "fer": 3282,
      "สงบ": 3283,
      "สันติ": 3284,
      "ทองคำ": 3285,
      "สงครามโลกครั้งที่สอง": 3286,
      "ขบวน": 3287,
      "มวยปล้ำ": 3288,
      "จันท": 3289,
      "ดัดแปลง": 3290,
      "ล้าง": 3291,
      "รวด": 3292,
      "เนส": 3293,
      "เวช": 3294,
      "ปร่าง": 3295,
      "รูปร่าง": 3296,
      "เกส": 3297,
      "ยูฟ่า": 3298,
      "จ้าง": 3299,
      "ทั้งสิ้น": 3300,
      "son": 3301,
      "คุก": 3302,
      "ubl": 3303,
      "Man": 3304,
      "เทียน": 3305,
      "ick": 3306,
      "โซน": 3307,
      "ภาษาไทย": 3308,
      "ประถม": 3309,
      "ถอน": 3310,
      "ลัย": 3311,
      "อนาคต": 3312,
      "Be": 3313,
      "หลอด": 3314,
      "ซาก": 3315,
      "ปทุม": 3316,
      "มรดก": 3317,
      "อส": 3318,
      "ศาสน": 3319,
      "รอน": 3320,
      "bo": 3321,
      "พรีเมียร์": 3322,
      "รายได้": 3323,
      "สวม": 3324,
      "สวี": 3325,
      "ืม": 3326,
      "ี้ยว": 3327,
      "เม็ก": 3328,
      "ดั้งเดิม": 3329,
      "On": 3330,
      "title": 3331,
      "ยิน": 3332,
      "อุณหภูมิ": 3333,
      "Off": 3334,
      "ผู้ช่วย": 3335,
      "ลัก": 3336,
      "ถี": 3337,
      "ัฐ": 3338,
      "นิธิ": 3339,
      "ative": 3340,
      "มหาด": 3341,
      "ปรัช": 3342,
      "ทุกคน": 3343,
      "ษย": 3344,
      "pro": 3345,
      "พัง": 3346,
      "แทร": 3347,
      "เชอร์": 3348,
      "โฆษณา": 3349,
      "ปรัชญา": 3350,
      "ปีก": 3351,
      "ซะ": 3352,
      "ขึ้นไป": 3353,
      "บ้าง": 3354,
      "บราซิล": 3355,
      "โฉ": 3356,
      "การรักษา": 3357,
      "row": 3358,
      "สนธิสัญญา": 3359,
      "เวียน": 3360,
      "การคัดเลือก": 3361,
      "เก็ต": 3362,
      "ดาร์": 3363,
      "Car": 3364,
      "พาณิช": 3365,
      "Se": 3366,
      "เลอ": 3367,
      "Ad": 3368,
      "เดนมาร์ก": 3369,
      "รงค์": 3370,
      "โดน": 3371,
      "แหลม": 3372,
      "เฉลี่ย": 3373,
      "ขอนแก่น": 3374,
      "ase": 3375,
      "รายการโทรทัศน์": 3376,
      "ตาก": 3377,
      "TV": 3378,
      "เสธ": 3379,
      "มอร์": 3380,
      "หาด": 3381,
      "สนามกีฬา": 3382,
      "For": 3383,
      "จำลอง": 3384,
      "ดอลลาร์": 3385,
      "วม": 3386,
      "พยพ": 3387,
      "ood": 3388,
      "สาธารณะ": 3389,
      "ica": 3390,
      "รรมา": 3391,
      "ชัดเจน": 3392,
      "อพยพ": 3393,
      "ซีน": 3394,
      "รายละเอียด": 3395,
      "ชาวบ้าน": 3396,
      "วรรณกรรม": 3397,
      "หลวงพ่อ": 3398,
      "ust": 3399,
      "ผลิตภัณฑ์": 3400,
      "ปฏิเสธ": 3401,
      "แกรนด์": 3402,
      "ทั้งนี้": 3403,
      "ผู้ชนะ": 3404,
      "ทิศเหนือ": 3405,
      "องศา": 3406,
      "รุษ": 3407,
      "บุรุษ": 3408,
      "เยา": 3409,
      "โดยที่": 3410,
      "รวดเร็ว": 3411,
      "อาหรับ": 3412,
      "ฝัง": 3413,
      "ชาน": 3414,
      "ng": 3415,
      "ลัน": 3416,
      "น่าน": 3417,
      "บรรณ": 3418,
      "กวาง": 3419,
      "ม่วง": 3420,
      "เขตการปกครอง": 3421,
      "อารมณ์": 3422,
      "ครองราชย์": 3423,
      "แทนที่": 3424,
      "ทักษ": 3425,
      "ผู้ใช้": 3426,
      "tion": 3427,
      "กัส": 3428,
      "ผลการแข่งขัน": 3429,
      "ศุ": 3430,
      "เนเธอร์": 3431,
      "Is": 3432,
      "Ed": 3433,
      "หลาน": 3434,
      "มหาชน": 3435,
      "เพลย์": 3436,
      "กบฏ": 3437,
      "สรรค์": 3438,
      "ปั้น": 3439,
      "งู": 3440,
      "Ac": 3441,
      "สส": 3442,
      "สัญชาติ": 3443,
      "ภิก": 3444,
      "ดาน": 3445,
      "Award": 3446,
      "สาเหตุ": 3447,
      "ศร": 3448,
      "Press": 3449,
      "๊ะ": 3450,
      "ตามลำดับ": 3451,
      "คณิตศาสตร์": 3452,
      "เนเธอร์แลนด์": 3453,
      "ฤต": 3454,
      "form": 3455,
      "ก้า": 3456,
      "ที่ปรึกษา": 3457,
      "บรรจุ": 3458,
      "ตุเกส": 3459,
      "โปรตุเกส": 3460,
      "ไส": 3461,
      "ค่อย": 3462,
      "ประสิทธิภาพ": 3463,
      "ปีก่อน": 3464,
      "ทิศตะวันออก": 3465,
      "ติดกับ": 3466,
      "ในสังกัด": 3467,
      "ชิต": 3468,
      "กรีก": 3469,
      "มิติ": 3470,
      "ูป": 3471,
      "ดับเบิล": 3472,
      "Love": 3473,
      "ตรวจสอบ": 3474,
      "ชี้": 3475,
      "org": 3476,
      "ขัดแย้ง": 3477,
      "ิกา": 3478,
      "แลน": 3479,
      "เพาะ": 3480,
      "ผู้ป่วย": 3481,
      "ญญาณ": 3482,
      "อินเตอร์": 3483,
      "รู้สึก": 3484,
      "โชว์": 3485,
      "เอกสาร": 3486,
      "ค่อน": 3487,
      "โห": 3488,
      "กำหนดให้": 3489,
      "ความรัก": 3490,
      "เสาร์": 3491,
      "มั่นคง": 3492,
      "วิญญาณ": 3493,
      "เนียม": 3494,
      "เครือข่าย": 3495,
      "กี้": 3496,
      "เต้น": 3497,
      "รถยนต์": 3498,
      "ประดิษฐ์": 3499,
      "Hist": 3500,
      "BC": 3501,
      "ซี่": 3502,
      "หรือไม่": 3503,
      "โปรดเกล้าฯ": 3504,
      "อัก": 3505,
      "พระราชินี": 3506,
      "งวง": 3507,
      "โอน": 3508,
      "มีอายุ": 3509,
      "BA": 3510,
      "fl": 3511,
      "กัล": 3512,
      "มวยสากล": 3513,
      "บ่อย": 3514,
      "igh": 3515,
      "แก๊": 3516,
      "บุตรชาย": 3517,
      "เซา": 3518,
      "เลขาธิการ": 3519,
      "ยอ": 3520,
      "ซับ": 3521,
      "ไรเดอร์": 3522,
      "ปริญญาตรี": 3523,
      "อิสลาม": 3524,
      "ถ่ายทำ": 3525,
      "ทิศใต้": 3526,
      "โปร์": 3527,
      "old": 3528,
      "บูล": 3529,
      "มีบทบาท": 3530,
      "สวีเดน": 3531,
      "ทั้งคู่": 3532,
      "บทความ": 3533,
      "yn": 3534,
      "โดยตรง": 3535,
      "พระราชบัญญัติ": 3536,
      "เพ็": 3537,
      "US": 3538,
      "ยกเลิก": 3539,
      "ลบ": 3540,
      "ประสาน": 3541,
      "ประชาชาติ": 3542,
      "ฝี": 3543,
      "ทันที": 3544,
      "ฮัง": 3545,
      "De": 3546,
      "ษุ": 3547,
      "สิงค": 3548,
      "สุนทร": 3549,
      "พ่าย": 3550,
      "กล้อง": 3551,
      "อดุล": 3552,
      "ศักดิ์สิทธิ์": 3553,
      "โกล": 3554,
      "ความหมาย": 3555,
      "ฮิต": 3556,
      "ateg": 3557,
      "แอนด์": 3558,
      "สิงคโปร์": 3559,
      "เหมาะสม": 3560,
      "ทดสอบ": 3561,
      "รำ": 3562,
      "นิวย": 3563,
      "มังกร": 3564,
      "ตั้งชื่อ": 3565,
      "อป": 3566,
      "แอนิเม": 3567,
      "ทายาท": 3568,
      "พระราชา": 3569,
      "Wh": 3570,
      "พูล": 3571,
      "NA": 3572,
      "โปแลนด์": 3573,
      "นิวยอร์ก": 3574,
      "โนน": 3575,
      "คติ": 3576,
      "oot": 3577,
      "้าราช": 3578,
      "เท่ากับ": 3579,
      "ชวน": 3580,
      "ลิน": 3581,
      "ข้าราช": 3582,
      "ตามที่": 3583,
      "เพณี": 3584,
      "ผู้คน": 3585,
      "ยุบ": 3586,
      "team": 3587,
      "เชล": 3588,
      "สำเร็จการศึกษา": 3589,
      "เม็กซิ": 3590,
      "ข์": 3591,
      "ประเพณี": 3592,
      "ในนาม": 3593,
      "ยูโร": 3594,
      "แรงงาน": 3595,
      "อุบล": 3596,
      "ความเชื่อ": 3597,
      "ทุกวัน": 3598,
      "ยุทธการ": 3599,
      "ma": 3600,
      "หุ้น": 3601,
      "สิ่งแวดล้อม": 3602,
      "tex": 3603,
      "สาบ": 3604,
      "ข้อความ": 3605,
      "ว่": 3606,
      "สอด": 3607,
      "เทศกาล": 3608,
      "go": 3609,
      "International": 3610,
      "dr": 3611,
      "Air": 3612,
      "ยืนยัน": 3613,
      "int": 3614,
      "ยกเว้น": 3615,
      "อิเล็ก": 3616,
      "วิเคราะห์": 3617,
      "มิต": 3618,
      "Cr": 3619,
      "พิท": 3620,
      "ที่หนึ่ง": 3621,
      "port": 3622,
      "ลูกทุ่ง": 3623,
      "ขลา": 3624,
      "หวาน": 3625,
      "Gre": 3626,
      "You": 3627,
      "โอะ": 3628,
      "รษ": 3629,
      "gl": 3630,
      "แต่งเพลง": 3631,
      "ษฐา": 3632,
      "cy": 3633,
      "เปียน": 3634,
      "der": 3635,
      "โระ": 3636,
      "ีด": 3637,
      "off": 3638,
      "กลัว": 3639,
      "เดียน": 3640,
      "Wrest": 3641,
      "au": 3642,
      "Me": 3643,
      "ประการ": 3644,
      "ศาสตร": 3645,
      "line": 3646,
      "ร่า": 3647,
      "ier": 3648,
      "เฉิน": 3649,
      "ตะวันออกเฉียงใต้": 3650,
      "ท้าว": 3651,
      "ST": 3652,
      "ปูน": 3653,
      "เล็กน้อย": 3654,
      "๋ย": 3655,
      "เกะ": 3656,
      "สุพรรณ": 3657,
      "ฮัม": 3658,
      "ลดลง": 3659,
      "ล่ม": 3660,
      "ชญ": 3661,
      "ถ้ำ": 3662,
      "ย่าน": 3663,
      "ด่าน": 3664,
      "ญาณ": 3665,
      "สุโข": 3666,
      "เข้ากับ": 3667,
      "สถานการณ์": 3668,
      "๋ง": 3669,
      "ก่อนที่": 3670,
      "br": 3671,
      "itt": 3672,
      "คณะสงฆ์": 3673,
      "่ย": 3674,
      "หมื่น": 3675,
      "ont": 3676,
      "อับ": 3677,
      "Im": 3678,
      "แลก": 3679,
      "สำนักพิมพ์": 3680,
      "rap": 3681,
      "พุทธศักราช": 3682,
      "ฆาต": 3683,
      "War": 3684,
      "สันนิ": 3685,
      "ตส์": 3686,
      "โรงแรม": 3687,
      "กรด": 3688,
      "ทัวร์": 3689,
      "ฟื้นฟู": 3690,
      "Vol": 3691,
      "๋า": 3692,
      "หมอ": 3693,
      "เซียน": 3694,
      "ทธา": 3695,
      "แปซิ": 3696,
      "ความรู้สึก": 3697,
      "ll": 3698,
      "นท": 3699,
      "อัม": 3700,
      "พลเอก": 3701,
      "กรุงเทพฯ": 3702,
      "ออนไลน์": 3703,
      "ดยุก": 3704,
      "ฟอร์ด": 3705,
      "สะด": 3706,
      "ให้การ": 3707,
      "สไต": 3708,
      "ผู้บัญชาการ": 3709,
      "isode": 3710,
      "แฮม": 3711,
      "เจ้าเมือง": 3712,
      "อย่างยิ่ง": 3713,
      "เม็กซิโก": 3714,
      "ปู่": 3715,
      "บอย": 3716,
      "บ่อ": 3717,
      "กรอบ": 3718,
      "โคก": 3719,
      "เบิร์ก": 3720,
      "สหภาพโซเวียต": 3721,
      "ฝู": 3722,
      "น้อยกว่า": 3723,
      "เมิน": 3724,
      "ซึม": 3725,
      "ปอ": 3726,
      "พูน": 3727,
      "หนังสือพิมพ์": 3728,
      "จุลจอมเกล้า": 3729,
      "จักรวาล": 3730,
      "พระบรมราช": 3731,
      "มงกุฎ": 3732,
      "สุโขทัย": 3733,
      "คนอื่น": 3734,
      "มณี": 3735,
      "ขับร้อง": 3736,
      "น่าจะ": 3737,
      "ไทยแลนด์": 3738,
      "ศล": 3739,
      "วางแผน": 3740,
      "แท้จริง": 3741,
      "ฉะ": 3742,
      "รุง": 3743,
      "อาน": 3744,
      "กาญ": 3745,
      "พิทักษ์": 3746,
      "้วง": 3747,
      "My": 3748,
      "การ์ด": 3749,
      "website": 3750,
      "เทว": 3751,
      "ต้นไม้": 3752,
      "วู": 3753,
      "พะ": 3754,
      "ศรั": 3755,
      "ความสูง": 3756,
      "หัก": 3757,
      "me": 3758,
      "ซิตี": 3759,
      "ติเมตร": 3760,
      "ลำตัว": 3761,
      "ติดตาม": 3762,
      "ช้า": 3763,
      "ฟิน": 3764,
      "คลัง": 3765,
      "เซนติเมตร": 3766,
      "เจ็ด": 3767,
      "เด็น": 3768,
      "นวนิยาย": 3769,
      "iet": 3770,
      "ategory": 3771,
      "นับตั้งแต่": 3772,
      "อรรถ": 3773,
      "ภักดี": 3774,
      "เรื่อย": 3775,
      "คุณภาพ": 3776,
      "we": 3777,
      "อาณ": 3778,
      "มายัง": 3779,
      "rec": 3780,
      "ปารี": 3781,
      "ปารีส": 3782,
      "ราเอล": 3783,
      "อิสราเอล": 3784,
      "Gu": 3785,
      "ลุง": 3786,
      "โภค": 3787,
      "สิ่งมีชีวิต": 3788,
      "บรมวงศ์": 3789,
      "Episode": 3790,
      "ฤดูหนาว": 3791,
      "การควบคุม": 3792,
      "เนื้อเรื่อง": 3793,
      "จม": 3794,
      "อุบัติ": 3795,
      "list": 3796,
      "เวอร์ชัน": 3797,
      "วุฒิสภา": 3798,
      "เผา": 3799,
      "เอกชน": 3800,
      "ton": 3801,
      "ยักษ์": 3802,
      "ข้าราชการ": 3803,
      "นำแสดง": 3804,
      "ins": 3805,
      "สนอง": 3806,
      "ซ้ำ": 3807,
      "พาร์": 3808,
      "การเขียน": 3809,
      "ลิข": 3810,
      "ภิกษุ": 3811,
      "Dr": 3812,
      "อี้": 3813,
      "กก": 3814,
      "มูลนิธิ": 3815,
      "กลิ่น": 3816,
      "ผลกระทบ": 3817,
      "บำรุง": 3818,
      "แผนที่": 3819,
      "โจว": 3820,
      "หนู": 3821,
      "วิถี": 3822,
      "ซ่า": 3823,
      "ดับเบิลยู": 3824,
      "ัตสึ": 3825,
      "สายการ": 3826,
      "นับถือ": 3827,
      "วช": 3828,
      "ราชินีนาถ": 3829,
      "Best": 3830,
      "ราชธานี": 3831,
      "เบส": 3832,
      "ศิลา": 3833,
      "สกี": 3834,
      "เปิดเผย": 3835,
      "ขนาน": 3836,
      "พาณิชย์": 3837,
      "บุคล": 3838,
      "มนต์": 3839,
      "พนัก": 3840,
      "พิก": 3841,
      "ไข้": 3842,
      "มนุษย": 3843,
      "anc": 3844,
      "ไทร": 3845,
      "คนเดียว": 3846,
      "เร็ง": 3847,
      "อันตร": 3848,
      "พญา": 3849,
      "คุณสมบัติ": 3850,
      "งิ": 3851,
      "ism": 3852,
      "เข้ารอบ": 3853,
      "พบก": 3854,
      "ไวรัส": 3855,
      "หม่อมเจ้า": 3856,
      "สมัยใหม่": 3857,
      "เจ้าภาพ": 3858,
      "ทัพบก": 3859,
      "เสน": 3860,
      "ธรรมศาสตร์": 3861,
      "ตะวันออกเฉียงเหนือ": 3862,
      "ส้ม": 3863,
      "ศาจ": 3864,
      "ใช้เวลา": 3865,
      "ชุ": 3866,
      "WW": 3867,
      "คิง": 3868,
      "นม": 3869,
      "ations": 3870,
      "แนล": 3871,
      "แปซิฟิก": 3872,
      "วบ": 3873,
      "ร่วมใน": 3874,
      "ดอร์": 3875,
      "์ม": 3876,
      "นักแสดงหญิง": 3877,
      "ดาวเคราะห์": 3878,
      "Med": 3879,
      "หวัน": 3880,
      "ไต้หวัน": 3881,
      "Joh": 3882,
      "โรห์": 3883,
      "ฟาโรห์": 3884,
      "รถไฟฟ้า": 3885,
      "ert": 3886,
      "ดูด": 3887,
      "center": 3888,
      "ขึ้นอยู่": 3889,
      "แอนิเมชัน": 3890,
      "แผนก": 3891,
      "บูชา": 3892,
      "อุดมศึกษา": 3893,
      "ฮอล": 3894,
      "สายการบิน": 3895,
      "เป็นตัวแทน": 3896,
      "ศก": 3897,
      "การี": 3898,
      "ประดิษฐาน": 3899,
      "จาง": 3900,
      "ปาน": 3901,
      "กวี": 3902,
      "นพ": 3903,
      "ตุร": 3904,
      "ดี้": 3905,
      "ธงชาติ": 3906,
      "อ่าว": 3907,
      "ประกัน": 3908,
      "oss": 3909,
      "box": 3910,
      "คมนาคม": 3911,
      "ย่อง": 3912,
      "สหพันธ์": 3913,
      "ป้อม": 3914,
      "ว่าด้วย": 3915,
      "สมุด": 3916,
      "ขบวนการ": 3917,
      "เครื่องยนต์": 3918,
      "แบน": 3919,
      "ระยะทาง": 3920,
      "เป็นที่ตั้ง": 3921,
      "เชื่อมต่อ": 3922,
      "svg": 3923,
      "ขั้ว": 3924,
      "ญาติ": 3925,
      "อดุลย": 3926,
      "pp": 3927,
      "กองทัพบก": 3928,
      "พนักงาน": 3929,
      "span": 3930,
      "โซล": 3931,
      "พฤติกรรม": 3932,
      "ดุล": 3933,
      "Ser": 3934,
      "ตั": 3935,
      "เยื่อ": 3936,
      "สหประชาชาติ": 3937,
      "ปฏิก": 3938,
      "ที่สูง": 3939,
      "umber": 3940,
      "ฤกษ์": 3941,
      "บอร์ด": 3942,
      "นิสัย": 3943,
      "แคน": 3944,
      "เบิร์ต": 3945,
      "ปราการ": 3946,
      "ขนม": 3947,
      "File": 3948,
      "เกณฑ์": 3949,
      "หลบ": 3950,
      "เก้า": 3951,
      "องค์ประกอบ": 3952,
      "ัตย์": 3953,
      "อันเป็น": 3954,
      "ภายน": 3955,
      "ผู้โดยสาร": 3956,
      "ภายนอก": 3957,
      "พ้น": 3958,
      "เตะ": 3959,
      "ค่อนข้าง": 3960,
      "วัตร": 3961,
      "เอกราช": 3962,
      "สาธารณสุข": 3963,
      "เจมส์": 3964,
      "เสี่ยง": 3965,
      "ลงมา": 3966,
      "เชี่ยว": 3967,
      "บรรพ": 3968,
      "สตี": 3969,
      "เชียงราย": 3970,
      "ถ้วย": 3971,
      "AR": 3972,
      "สรณ์": 3973,
      "ดื": 3974,
      "ประมุข": 3975,
      "นำไปสู่": 3976,
      "ภูมิพล": 3977,
      "ยกย่อง": 3978,
      "แปด": 3979,
      "มาตรา": 3980,
      "ฮังการี": 3981,
      "เรย์": 3982,
      "ดึง": 3983,
      "บรรยาย": 3984,
      "มัด": 3985,
      "ชลบุรี": 3986,
      "ball": 3987,
      "ale": 3988,
      "จาน": 3989,
      "ไผ": 3990,
      "รวมกัน": 3991,
      "พระราชพิธี": 3992,
      "Wrestling": 3993,
      "ther": 3994,
      "อร์ต": 3995,
      "นำเสนอ": 3996,
      "ชายฝั่ง": 3997,
      "บรรณานุกรม": 3998,
      "str": 3999,
      "ym": 4000,
      "ต้นฉบับ": 4001,
      "ax": 4002,
      "การปฏิวัติ": 4003,
      "Official": 4004,
      "ทำนอง": 4005,
      "Category": 4006,
      "เคลื่อนที่": 4007,
      "อธิการ": 4008,
      "ล้อ": 4009,
      "สงขลา": 4010,
      "เข็ม": 4011,
      "จอร์จ": 4012,
      "ซอฟต์": 4013,
      "นัย": 4014,
      "Orig": 4015,
      "มีอำนาจ": 4016,
      "ขุด": 4017,
      "แมค": 4018,
      "ป็อป": 4019,
      "กึ่ง": 4020,
      "เกราะ": 4021,
      "เจีย": 4022,
      "เสนอชื่อ": 4023,
      "มุส": 4024,
      "รับราชการ": 4025,
      "นส์": 4026,
      "เฟร": 4027,
      "หร่าน": 4028,
      "เบร": 4029,
      "อิหร่าน": 4030,
      "เข้าถึง": 4031,
      "เทา": 4032,
      "เขมร": 4033,
      "ล่าสุด": 4034,
      "มหาดไทย": 4035,
      "หลุย": 4036,
      "ated": 4037,
      "กม": 4038,
      "เชสเตอร์": 4039,
      "ทน": 4040,
      "เบา": 4041,
      "Ind": 4042,
      "หลุยส์": 4043,
      "กี่": 4044,
      "text": 4045,
      "iew": 4046,
      "ผูก": 4047,
      "การประ": 4048,
      "Date": 4049,
      "ขั้นตอน": 4050,
      "ลอบ": 4051,
      "เนื้อที่": 4052,
      "สะดวก": 4053,
      "ชัยชนะ": 4054,
      "ยิว": 4055,
      "ซอน": 4056,
      "เมะ": 4057,
      "เอ็กซ์": 4058,
      "กล้าม": 4059,
      "ตลก": 4060,
      "ความปลอดภัย": 4061,
      "ตาน": 4062,
      "แสดงนำ": 4063,
      "ติดตั้ง": 4064,
      "alt": 4065,
      "สิกส์": 4066,
      "ศิษย์เก่า": 4067,
      "ธนบุรี": 4068,
      "ican": 4069,
      "สตัน": 4070,
      "รองรับ": 4071,
      "อนุม": 4072,
      "ธรรมราช": 4073,
      "นครศรี": 4074,
      "นครศรีธรรมราช": 4075,
      "นิช": 4076,
      "ขัน": 4077,
      "มิได้": 4078,
      "ฟิสิกส์": 4079,
      "ese": 4080,
      "ภูมิศาสตร์": 4081,
      "บทอด": 4082,
      "สืบทอด": 4083,
      "ป้าย": 4084,
      "เออร์": 4085,
      "ถ่ายภาพ": 4086,
      "พระธาตุ": 4087,
      "โลหะ": 4088,
      "ปฏิกิ": 4089,
      "ผัส": 4090,
      "อันตราย": 4091,
      "พจน์": 4092,
      "โดดเด่น": 4093,
      "บัส": 4094,
      "ology": 4095,
      "บัด": 4096,
      "ปาล": 4097,
      "านิคม": 4098,
      "อาณานิคม": 4099,
      "เครน": 4100,
      "ER": 4101,
      "By": 4102,
      "ชัก": 4103,
      "ภาษี": 4104,
      "พิตร": 4105,
      "ปรี": 4106,
      "มาลา": 4107,
      "ความเสียหาย": 4108,
      "ให้เห็น": 4109,
      "ผนัง": 4110,
      "ไผ่": 4111,
      "บึง": 4112,
      "เคาน": 4113,
      "หลายครั้ง": 4114,
      "Jap": 4115,
      "iam": 4116,
      "พรรคการเมือง": 4117,
      "เตอร์เทน": 4118,
      "ชิด": 4119,
      "เหมือนกับ": 4120,
      "eth": 4121,
      "อุทยานแห่งชาติ": 4122,
      "เสก": 4123,
      "วัสดุ": 4124,
      "ประถมศึกษา": 4125,
      "มเห": 4126,
      "นักดนตรี": 4127,
      "ถ่ายทอด": 4128,
      "มปิก": 4129,
      "โฟร์": 4130,
      "สะท": 4131,
      "โดร": 4132,
      "ความจริง": 4133,
      "ริด": 4134,
      "ถาวร": 4135,
      "ผัก": 4136,
      "กองทัพเรือ": 4137,
      "สามก๊ก": 4138,
      "ii": 4139,
      "เสม": 4140,
      "inc": 4141,
      "แว": 4142,
      "ink": 4143,
      "น็อค": 4144,
      "จัดอันดับ": 4145,
      "ทรัพย": 4146,
      "ดิว": 4147,
      "ดื่ม": 4148,
      "ปฏิกิริยา": 4149,
      "ฝา": 4150,
      "ไกร": 4151,
      "บพิตร": 4152,
      "ภาควิชา": 4153,
      "สวยงาม": 4154,
      "บวช": 4155,
      "ระเบียบ": 4156,
      "ยี่": 4157,
      "ลงทุน": 4158,
      "งบประมาณ": 4159,
      "กซ์": 4160,
      "ค้นหา": 4161,
      "แฝ": 4162,
      "เอะ": 4163,
      "ดีเด่น": 4164,
      "ประชาธิปัตย์": 4165,
      "รังสี": 4166,
      "ภาคใต้": 4167,
      "ensis": 4168,
      "คาบ": 4169,
      "ฮั่น": 4170,
      "จารึก": 4171,
      "วินิ": 4172,
      "bl": 4173,
      "จิตรกรรม": 4174,
      "MA": 4175,
      "พิน": 4176,
      "สัมผัส": 4177,
      "สีเหลือง": 4178,
      "ograp": 4179,
      "แร่": 4180,
      "ตีน": 4181,
      "ปกป้อง": 4182,
      "สะสม": 4183,
      "ฉายา": 4184,
      "กลอง": 4185,
      "Amer": 4186,
      "httpwww": 4187,
      "ทอล": 4188,
      "กำจัด": 4189,
      "บวก": 4190,
      "ราชสำนัก": 4191,
      "ประท": 4192,
      "อัญ": 4193,
      "ทรัพยากร": 4194,
      "กาน": 4195,
      "John": 4196,
      "ates": 4197,
      "Her": 4198,
      "ฝุ่น": 4199,
      "ชั่วคราว": 4200,
      "ฝูง": 4201,
      "Mo": 4202,
      "date": 4203,
      "ชื่อเล่น": 4204,
      "นอกจากนั้น": 4205,
      "มวลชน": 4206,
      "umm": 4207,
      "ทะเลสาบ": 4208,
      "เพ็ญ": 4209,
      "ชายแดน": 4210,
      "Pol": 4211,
      "du": 4212,
      "มีโอกาส": 4213,
      "air": 4214,
      "หม่อมราชวงศ์": 4215,
      "พงศา": 4216,
      "ดาล": 4217,
      "หลุม": 4218,
      "อู่": 4219,
      "ตารางกิโลเมตร": 4220,
      "โค้ง": 4221,
      "ศึกษาธิการ": 4222,
      "แอบ": 4223,
      "ฟังก์": 4224,
      "ความแตกต่าง": 4225,
      "Mon": 4226,
      "ดอกไม้": 4227,
      "ตู้": 4228,
      "ขึ้นอยู่กับ": 4229,
      "อิม": 4230,
      "มาริ": 4231,
      "นิวเคล": 4232,
      "ตึก": 4233,
      "ถูกต้อง": 4234,
      "ซัม": 4235,
      "ทำได้": 4236,
      "เปียนส์": 4237,
      "สละ": 4238,
      "กู้": 4239,
      "นนท": 4240,
      "res": 4241,
      "วชิ": 4242,
      "เชี่ยวชาญ": 4243,
      "ื่อม": 4244,
      "สูญเสีย": 4245,
      "เสบ": 4246,
      "History": 4247,
      "ผู้ชาย": 4248,
      "Comp": 4249,
      "ความขัดแย้ง": 4250,
      "right": 4251,
      "มเหสี": 4252,
      "ยูเครน": 4253,
      "พัฒน์": 4254,
      "มุสลิม": 4255,
      "ก๊": 4256,
      "สุล": 4257,
      "ater": 4258,
      "ภัฏ": 4259,
      "้ล": 4260,
      "นวณ": 4261,
      "คำนวณ": 4262,
      "yl": 4263,
      "own": 4264,
      "หอม": 4265,
      "เพอร์": 4266,
      "สถานีรถไฟ": 4267,
      "ซอย": 4268,
      "าราช": 4269,
      "ยึดครอง": 4270,
      "ลเลียม": 4271,
      "ปีศาจ": 4272,
      "กุน": 4273,
      "enn": 4274,
      "ree": 4275,
      "เวิร์ด": 4276,
      "อภิเษก": 4277,
      "ana": 4278,
      "ซัส": 4279,
      "มีค่า": 4280,
      "พี่ชาย": 4281,
      "ict": 4282,
      "เป็นผล": 4283,
      "yst": 4284,
      "ark": 4285,
      "ปฏิทิน": 4286,
      "เฝ": 4287,
      "ความสนใจ": 4288,
      "ley": 4289,
      "คณะรัฐมนตรี": 4290,
      "ลำปาง": 4291,
      "ผู้ชม": 4292,
      "ิกาย": 4293,
      "มหานิกาย": 4294,
      "โหม": 4295,
      "Ge": 4296,
      "กล้ามเนื้อ": 4297,
      "วันเกิด": 4298,
      "ไหน": 4299,
      "ara": 4300,
      "ราชบัลลังก์": 4301,
      "กระบ": 4302,
      "บวร์": 4303,
      "ตอนเหนือ": 4304,
      "แชมเปียนส์": 4305,
      "Original": 4306,
      "ผู้ใหญ่": 4307,
      "ome": 4308,
      "กุมาร": 4309,
      "เอกซ์": 4310,
      "TC": 4311,
      "ไก่": 4312,
      "มาด": 4313,
      "เตือน": 4314,
      "อึ": 4315,
      "กระทรวงมหาดไทย": 4316,
      "น้ำเงิน": 4317,
      "เปลือก": 4318,
      "Art": 4319,
      "unt": 4320,
      "ลิเวอร์": 4321,
      "ลิเวอร์พูล": 4322,
      "Em": 4323,
      "กรุณา": 4324,
      "เลก": 4325,
      "เอเช": 4326,
      "สุริ": 4327,
      "ยื่น": 4328,
      "กีตาร์": 4329,
      "ทำประตู": 4330,
      "แมลง": 4331,
      "วาระ": 4332,
      "แค้น": 4333,
      "ดอลลาร์สหรัฐ": 4334,
      "ราชภัฏ": 4335,
      "ปลัด": 4336,
      "ผ่า": 4337,
      "คริสตกาล": 4338,
      "ท้องที่": 4339,
      "No": 4340,
      "สวัสดิ์": 4341,
      "พระพุทธศาสนา": 4342,
      "ซิม": 4343,
      "ระบาด": 4344,
      "Japan": 4345,
      "วงดนตรี": 4346,
      "แถว": 4347,
      "แพทยศาสตร์": 4348,
      "Sup": 4349,
      "วิทยาเขต": 4350,
      "IN": 4351,
      "สลา": 4352,
      "อุดร": 4353,
      "อนุรักษ์": 4354,
      "ถัมภ": 4355,
      "CO": 4356,
      "สลัก": 4357,
      "ise": 4358,
      "Res": 4359,
      "แห้ง": 4360,
      "จั": 4361,
      "นิส": 4362,
      "พระที่นั่ง": 4363,
      "ors": 4364,
      "ความมั่นคง": 4365,
      "ด้านล่าง": 4366,
      "สุรินทร์": 4367,
      "มหาวิทยาลัยธรรมศาสตร์": 4368,
      "ยิ่งใหญ่": 4369,
      "พัด": 4370,
      "ตลอดจน": 4371,
      "All": 4372,
      "เจ้าคณะ": 4373,
      "เปรียบเทียบ": 4374,
      "รัมย์": 4375,
      "การแพทย์": 4376,
      "ขี้": 4377,
      "นักวิชาการ": 4378,
      "ตัวอักษร": 4379,
      "ค่ำ": 4380,
      "ย็อง": 4381,
      "นิยาม": 4382,
      "ลีย์": 4383,
      "ทหารบก": 4384,
      "น้ำตก": 4385,
      "Team": 4386,
      "สลับ": 4387,
      "แฮร์": 4388,
      "National": 4389,
      "คลาส": 4390,
      "รุกราน": 4391,
      "ฮะ": 4392,
      "its": 4393,
      "กาง": 4394,
      "หญ้า": 4395,
      "เก่าแก่": 4396,
      "ays": 4397,
      "ถ์": 4398,
      "ณรงค์": 4399,
      "orn": 4400,
      "พ่ายแพ้": 4401,
      "โรงงาน": 4402,
      "เครื่องมือ": 4403,
      "สรรพ": 4404,
      "ฝีมือ": 4405,
      "พระเกียรติ": 4406,
      "สุทธิ์": 4407,
      "ซอฟต์แวร์": 4408,
      "การใช้งาน": 4409,
      "อุบัติเหตุ": 4410,
      "เครื่องหมาย": 4411,
      "เงา": 4412,
      "รรศ": 4413,
      "King": 4414,
      "ด้านหน้า": 4415,
      "out": 4416,
      "หล่อ": 4417,
      "นุม": 4418,
      "นคริน": 4419,
      "ชุมนุม": 4420,
      "Trans": 4421,
      "ดิจิ": 4422,
      "ตัวอย่างเช่น": 4423,
      "ถัมภ์": 4424,
      "ดิจิทัล": 4425,
      "กระทรวงการ": 4426,
      "ฑา": 4427,
      "ปัจจัย": 4428,
      "คีรี": 4429,
      "ได้มา": 4430,
      "ฟังก์ชัน": 4431,
      "จฉัย": 4432,
      "วินิจฉัย": 4433,
      "ความร้อน": 4434,
      "มีความหมาย": 4435,
      "ผู้บริหาร": 4436,
      "af": 4437,
      "นทร์": 4438,
      "be": 4439,
      "อัศ": 4440,
      "ถอด": 4441,
      "ลาก": 4442,
      "ser": 4443,
      "ความช่วยเหลือ": 4444,
      "ที่วัด": 4445,
      "กร้อง": 4446,
      "จุฬา": 4447,
      "เอเชียน": 4448,
      "ผู้เสียชีวิต": 4449,
      "เรียกร้อง": 4450,
      "ตอบรับ": 4451,
      "สะท้อน": 4452,
      "ถี่": 4453,
      "อิล": 4454,
      "คาทอล": 4455,
      "Chr": 4456,
      "มิด": 4457,
      "ฝึกสอน": 4458,
      "แทรก": 4459,
      "อุบลราชธานี": 4460,
      "าราชการ": 4461,
      "สันนิษฐาน": 4462,
      "โหล": 4463,
      "ธรรมดา": 4464,
      "ool": 4465,
      "aj": 4466,
      "โก้": 4467,
      "ailand": 4468,
      "พลเรือน": 4469,
      "อาด": 4470,
      "นันท์": 4471,
      "ให้เกิด": 4472,
      "วนาน": 4473,
      "กระทรวงศึกษาธิการ": 4474,
      "คาทอลิก": 4475,
      "ดิบ": 4476,
      "การป้องกัน": 4477,
      "จญ": 4478,
      "ร่วมงาน": 4479,
      "บูรณะ": 4480,
      "เซิล": 4481,
      "ไส้": 4482,
      "เซิน": 4483,
      "ติดเชื้อ": 4484,
      "ิร์ล": 4485,
      "ก้าน": 4486,
      "ด้า": 4487,
      "แซม": 4488,
      "Number": 4489,
      "ทม": 4490,
      "แตน": 4491,
      "กระตุ": 4492,
      "ยามา": 4493,
      "over": 4494,
      "ทางเพศ": 4495,
      "อินเทอร์": 4496,
      "ผู้ปกครอง": 4497,
      "ระบอบ": 4498,
      "สร้างสรรค์": 4499,
      "ใต้ดิน": 4500,
      "not": 4501,
      "งก": 4502,
      "ake": 4503,
      "ฟอร์ม": 4504,
      "เทือก": 4505,
      "ละครใน": 4506,
      "เทศบาลเมือง": 4507,
      "ited": 4508,
      "ก่อนหน้านี้": 4509,
      "เวศ": 4510,
      "แมนเชสเตอร์": 4511,
      "ย่า": 4512,
      "ย้อน": 4513,
      "ี๋ย": 4514,
      "รับประทาน": 4515,
      "คาย": 4516,
      "วัดราษฎร์": 4517,
      "บาส": 4518,
      "เมา": 4519,
      "Gen": 4520,
      "ยุกต์": 4521,
      "พอล": 4522,
      "สวิต": 4523,
      "แสดงให้เห็น": 4524,
      "เกินไป": 4525,
      "เยียม": 4526,
      "ลูกชาย": 4527,
      "เบลเยียม": 4528,
      "พลาด": 4529,
      "เช้า": 4530,
      "ขึ้นกับ": 4531,
      "ตรงข้าม": 4532,
      "้ย": 4533,
      "กาฬ": 4534,
      "โทรศัพท์": 4535,
      "ราชทูต": 4536,
      "แบล": 4537,
      "ชิล": 4538,
      "ดังต่อไปนี้": 4539,
      "หมา": 4540,
      "หลาด": 4541,
      "ซัง": 4542,
      "เป็นเรื่อง": 4543,
      "แผ่นดินไหว": 4544,
      "หลังคา": 4545,
      "พระบาทสมเด็จพระจุลจอมเกล้า": 4546,
      "PG": 4547,
      "พระบาทสมเด็จพระจุลจอมเกล้าเจ้าอยู่หัว": 4548,
      "อนด์": 4549,
      "ให้ได้": 4550,
      "ยุทธ์": 4551,
      "สนุก": 4552,
      "อินเทอร์เน็ต": 4553,
      "ซ่อน": 4554,
      "ที่ว่า": 4555,
      "เจียง": 4556,
      "เศรษฐศาสตร์": 4557,
      "พนธ์": 4558,
      "ตุรกี": 4559,
      "ไมเคิล": 4560,
      "ฏิ": 4561,
      "โบราณสถาน": 4562,
      "ไห": 4563,
      "เขตร": 4564,
      "เขตร้อน": 4565,
      "ซัล": 4566,
      "CA": 4567,
      "till": 4568,
      "โกร": 4569,
      "ทรัพย์สิน": 4570,
      "ype": 4571,
      "ถัดมา": 4572,
      "let": 4573,
      "โยง": 4574,
      "ตัวแทน": 4575,
      "แมว": 4576,
      "ลูกสาว": 4577,
      "ภิเษก": 4578,
      "ไอร์": 4579,
      "ไอร์แลนด์": 4580,
      "อิสริย": 4581,
      "หมู": 4582,
      "ision": 4583,
      "ยาวนาน": 4584,
      "ท้า": 4585,
      "ประสบการณ์": 4586,
      "ไมโคร": 4587,
      "กรุงศรีอยุธยา": 4588,
      "ามา": 4589,
      "เฮา": 4590,
      "วีร": 4591,
      "นักแสดงชาย": 4592,
      "ประท้วง": 4593,
      "ดัช": 4594,
      "อยู": 4595,
      "เคียว": 4596,
      "จักรพรรดิน": 4597,
      "จักรพรรดินี": 4598,
      "ท่าเรือ": 4599,
      "กอก": 4600,
      "กัป": 4601,
      "บวร": 4602,
      "Music": 4603,
      "มินิ": 4604,
      "เจาะ": 4605,
      "น้องชาย": 4606,
      "นันท": 4607,
      "บวร์ค": 4608,
      "ตรอน": 4609,
      "ด้านหลัง": 4610,
      "ณุโลก": 4611,
      "เนียน": 4612,
      "แกะ": 4613,
      "บุรีรัมย์": 4614,
      "ตามมา": 4615,
      "แปลก": 4616,
      "นาซี": 4617,
      "ราชสมบัติ": 4618,
      "ดอย": 4619,
      "พิษณุโลก": 4620,
      "ประหลาด": 4621,
      "บลู": 4622,
      "อส์": 4623,
      "ดั้ม": 4624,
      "บัญชีรายชื่อ": 4625,
      "จอมพล": 4626,
      "พระราชธิดา": 4627,
      "อิสริยยศ": 4628,
      "เปิล": 4629,
      "าศัย": 4630,
      "Har": 4631,
      "จิ๋ว": 4632,
      "ตะวันตกเฉียง": 4633,
      "Soc": 4634,
      "ฮู": 4635,
      "่อาศัย": 4636,
      "พื้นเมือง": 4637,
      "บรู": 4638,
      "สูจน์": 4639,
      "กว้างขวาง": 4640,
      "ศวร": 4641,
      "พิสูจน์": 4642,
      "ames": 4643,
      "ual": 4644,
      "พรรคประชาธิปัตย์": 4645,
      "ช่วยว่าการ": 4646,
      "ประหารชีวิต": 4647,
      "เป็นไปได้": 4648,
      "จัดทำ": 4649,
      "แหวน": 4650,
      "การกระทำ": 4651,
      "สุดา": 4652,
      "ห้องเรียน": 4653,
      "PA": 4654,
      "เมล็ด": 4655,
      "oph": 4656,
      "ธิราช": 4657,
      "Comm": 4658,
      "การขนส่ง": 4659,
      "ครีบ": 4660,
      "ความต้องการ": 4661,
      "To": 4662,
      "จอด": 4663,
      "ฉัตร": 4664,
      "สังฆ": 4665,
      "จีเอ็ม": 4666,
      "Thailand": 4667,
      "La": 4668,
      "เฮอร์": 4669,
      "ที่ผ่าน": 4670,
      "ที่ผ่านมา": 4671,
      "อยด์": 4672,
      "ิกส์": 4673,
      "ถู": 4674,
      "iel": 4675,
      "อยู่อาศัย": 4676,
      "name": 4677,
      "อัย": 4678,
      "เทือกเขา": 4679,
      "โคน": 4680,
      "ต่ำกว่า": 4681,
      "คอล": 4682,
      "WWE": 4683,
      "อนุมัติ": 4684,
      "แนก": 4685,
      "ปาร์": 4686,
      "การทหาร": 4687,
      "แกรมมี่": 4688,
      "ลิขสิทธิ์": 4689,
      "ทูล": 4690,
      "วัค": 4691,
      "สายพันธุ์": 4692,
      "สัช": 4693,
      "เลง": 4694,
      "นักแต่งเพลง": 4695,
      "ความสำคัญ": 4696,
      "กุ้ง": 4697,
      "ootball": 4698,
      "ศุก": 4699,
      "จีเอ็มเอ็ม": 4700,
      "ว่าย": 4701,
      "โยธ": 4702,
      "ตกแต่ง": 4703,
      "ผู้ผลิต": 4704,
      "นรา": 4705,
      "เกียรติยศ": 4706,
      "Gl": 4707,
      "ยกฐานะ": 4708,
      "ound": 4709,
      "สวิ": 4710,
      "เป็นหลัก": 4711,
      "เกษม": 4712,
      "ตอม": 4713,
      "ทย์": 4714,
      "ไปถึง": 4715,
      "รวมไปถึง": 4716,
      "คุ้มครอง": 4717,
      "อ้างว่า": 4718,
      "Star": 4719,
      "เฝ้า": 4720,
      "การออกอากาศ": 4721,
      "สัด": 4722,
      "ทรู": 4723,
      "แน่": 4724,
      "ember": 4725,
      "ความร่วมมือ": 4726,
      "กระตุ้น": 4727,
      "ตั้งใจ": 4728,
      "การทดลอง": 4729,
      "ศุกร์": 4730,
      "ความถี่": 4731,
      "ไมล์": 4732,
      "อาราม": 4733,
      "gen": 4734,
      "กระท": 4735,
      "เหล่านั้น": 4736,
      "โชค": 4737,
      "แวน": 4738,
      "ช่วงต้น": 4739,
      "ดัก": 4740,
      "Native": 4741,
      "มวยไทย": 4742,
      "irect": 4743,
      "มัล": 4744,
      "เป็นอดีต": 4745,
      "ช่อ": 4746,
      "หิ": 4747,
      "ริว": 4748,
      "อีสาน": 4749,
      "ife": 4750,
      "จำเป็นต้อง": 4751,
      "ิ้ล": 4752,
      "นนทบุรี": 4753,
      "ลวด": 4754,
      "อภิเษกสมรส": 4755,
      "ade": 4756,
      "ทิพย์": 4757,
      "หนาแน่น": 4758,
      "El": 4759,
      "เอาไว้": 4760,
      "ยุติธรรม": 4761,
      "คิน": 4762,
      "วี่": 4763,
      "ฟอร์เนีย": 4764,
      "แหง": 4765,
      "ดิต": 4766,
      "๊ป": 4767,
      "บริโภค": 4768,
      "ศีล": 4769,
      "จำแนก": 4770,
      "มืด": 4771,
      "FA": 4772,
      "เรียว": 4773,
      "น้ำแข็ง": 4774,
      "พอใจ": 4775,
      "ท่อ": 4776,
      "สุทธิ": 4777,
      "พิพาก": 4778,
      "uss": 4779,
      "หุ่นยนต์": 4780,
      "ขัง": 4781,
      "ยับ": 4782,
      "อฟ": 4783,
      "พรม": 4784,
      "Summ": 4785,
      "พิพากษา": 4786,
      "แขก": 4787,
      "เนียร์": 4788,
      "็ส": 4789,
      "บางคน": 4790,
      "ความรุนแรง": 4791,
      "แกร่ง": 4792,
      "โรจน์": 4793,
      "Year": 4794,
      "my": 4795,
      "isc": 4796,
      "ศรัทธา": 4797,
      "bar": 4798,
      "วาร์": 4799,
      "กลีบ": 4800,
      "อัด": 4801,
      "แง": 4802,
      "นอร์เวย์": 4803,
      "หยาง": 4804,
      "ตง": 4805,
      "ินา": 4806,
      "ลฯ": 4807,
      "ลงนาม": 4808,
      "หอย": 4809,
      "รัญ": 4810,
      "ธรณี": 4811,
      "ยืม": 4812,
      "ล็อก": 4813,
      "สนเทศ": 4814,
      "สังคมนิยม": 4815,
      "ฯลฯ": 4816,
      "ผู้ก่อตั้ง": 4817,
      "โง": 4818,
      "ไม่ต้อง": 4819,
      "เท็น": 4820,
      "เชฟ": 4821,
      "เป็นอย่าง": 4822,
      "ศาสนาพุทธ": 4823,
      "เป็นอย่างมาก": 4824,
      "เยือน": 4825,
      "ชนนี": 4826,
      "จับกุม": 4827,
      "NativeTitle": 4828,
      "เวสต์": 4829,
      "Lang": 4830,
      "ats": 4831,
      "Per": 4832,
      "ustr": 4833,
      "กิ่งอำเภอ": 4834,
      "ล้มเหลว": 4835,
      "กรรมา": 4836,
      "อาสา": 4837,
      "ส่วนท้องถิ่น": 4838,
      "ทางรถไฟ": 4839,
      "York": 4840,
      "ล่วง": 4841,
      "แคลิ": 4842,
      "Nor": 4843,
      "นรี": 4844,
      "าที": 4845,
      "ชายา": 4846,
      "ภาคเหนือ": 4847,
      "แคบ": 4848,
      "็ท": 4849,
      "วิชัย": 4850,
      "ได้รับแต่งตั้ง": 4851,
      "ยามะ": 4852,
      "อ่าง": 4853,
      "เที่ยวบิน": 4854,
      "ลิส": 4855,
      "la": 4856,
      "ยิด": 4857,
      "แคลิฟอร์เนีย": 4858,
      "ช่วงแรก": 4859,
      "ตอนแรก": 4860,
      "บูร์": 4861,
      "ล้วน": 4862,
      "ณัฐ": 4863,
      "วัช": 4864,
      "ky": 4865,
      "รวมตัว": 4866,
      "อาชญ": 4867,
      "BE": 4868,
      "ปวด": 4869,
      "ิดล": 4870,
      "สมทบ": 4871,
      "Go": 4872,
      "ystem": 4873,
      "Min": 4874,
      "บรรทุก": 4875,
      "มหิดล": 4876,
      "็อต": 4877,
      "การสื่อสาร": 4878,
      "การเรียนรู้": 4879,
      "ซอง": 4880,
      "ฮิน": 4881,
      "ผู้สมัคร": 4882,
      "หลาบ": 4883,
      "เทิร์น": 4884,
      "โน้ม": 4885,
      "มาสค์": 4886,
      "ตอง": 4887,
      "goals": 4888,
      "เอกลักษณ์": 4889,
      "ความเห็น": 4890,
      "มองเห็น": 4891,
      "ศีรษ": 4892,
      "ศีรษะ": 4893,
      "เคาร": 4894,
      "ages": 4895,
      "กุศล": 4896,
      "ประจ": 4897,
      "นางแบบ": 4898,
      "รัฐประหาร": 4899,
      "อัครราชทูต": 4900,
      "ความพยายาม": 4901,
      "ว่าราชการ": 4902,
      "ประเด็น": 4903,
      "ขอให้": 4904,
      "มูลค่า": 4905,
      "วัคซีน": 4906,
      "เหมือนกัน": 4907,
      "ลพ": 4908,
      "top": 4909,
      "เรื่องย่อ": 4910,
      "ution": 4911,
      "กุหลาบ": 4912,
      "ular": 4913,
      "ower": 4914,
      "สุง": 4915,
      "สินธุ": 4916,
      "โยธิน": 4917,
      "คล้อง": 4918,
      "สารสนเทศ": 4919,
      "นิน": 4920,
      "เทวี": 4921,
      "ภิบาล": 4922,
      "ทางใต้": 4923,
      "เบญ": 4924,
      "โจร": 4925,
      "กาก": 4926,
      "โกสิน": 4927,
      "บี้": 4928,
      "ret": 4929,
      "ลังกา": 4930,
      "แพร่หลาย": 4931,
      "ลก": 4932,
      "สารคาม": 4933,
      "ปรากฏการณ์": 4934,
      "Rel": 4935,
      "ตำหนัก": 4936,
      "คบ": 4937,
      "ชิญ": 4938,
      "เผชิญ": 4939,
      "นำมาใช้": 4940,
      "มุมมอง": 4941,
      "กลาโหม": 4942,
      "ON": 4943,
      "วิสุง": 4944,
      "ตอนปลาย": 4945,
      "คามสีมา": 4946,
      "วิสุงคามสีมา": 4947,
      "ชมพู": 4948,
      "จดหมาย": 4949,
      "ซับซ้อน": 4950,
      "หลักการ": 4951,
      "ลี้": 4952,
      "การวิจัย": 4953,
      "แก๊ส": 4954,
      "ject": 4955,
      "ปี่": 4956,
      "หนาน": 4957,
      "ible": 4958,
      "กัว": 4959,
      "เลส": 4960,
      "อินทร": 4961,
      "สัดส่วน": 4962,
      "ปีเตอร์": 4963,
      "อย่างหนึ่ง": 4964,
      "บันดาล": 4965,
      "เซต": 4966,
      "imes": 4967,
      "ซ่อม": 4968,
      "โหว": 4969,
      "กลางเมือง": 4970,
      "เซฟ": 4971,
      "กรีซ": 4972,
      "ฟท์": 4973,
      "เกษตรศาสตร์": 4974,
      "เซ็นสัญญา": 4975,
      "วิลเลียม": 4976,
      "สวด": 4977,
      "ร่อง": 4978,
      "ัข": 4979,
      "ออกเสียง": 4980,
      "ama": 4981,
      "เนอ": 4982,
      "าราม": 4983,
      "ตอบสนอง": 4984,
      "เคอร์": 4985,
      "โกสินทร์": 4986,
      "กระจก": 4987,
      "Bar": 4988,
      "ภูมิอากาศ": 4989,
      "เตอร์เทนเมนต์": 4990,
      "็ป": 4991,
      "็อล": 4992,
      "วินาที": 4993,
      "cap": 4994,
      "สุนัข": 4995,
      "ผู้ฝึกสอน": 4996,
      "ane": 4997,
      "ทางทหาร": 4998,
      "ในอนาคต": 4999,
      "วัฒนาการ": 5000,
      "Sm": 5001,
      "๋อ": 5002,
      "อนุสรณ์": 5003,
      "การท่องเที่ยว": 5004,
      "ประยุกต์": 5005,
      "กล่อง": 5006,
      "ยอดขาย": 5007,
      "วิวัฒนาการ": 5008,
      "แผ่": 5009,
      "หุ้ม": 5010,
      "เซล": 5011,
      "ปริญญาโท": 5012,
      "TH": 5013,
      "ใย": 5014,
      "เร่ง": 5015,
      "pt": 5016,
      "ute": 5017,
      "กอต": 5018,
      "เป็นต้นมา": 5019,
      "อบรม": 5020,
      "ศนา": 5021,
      "แพน": 5022,
      "มะเร็ง": 5023,
      "สุพรรณบุรี": 5024,
      "กรรมาธิการ": 5025,
      "แมต": 5026,
      "ere": 5027,
      "adium": 5028,
      "วงษ์": 5029,
      "ปริศนา": 5030,
      "อุดรธานี": 5031,
      "แอต": 5032,
      "ลือ": 5033,
      "คำร้อง": 5034,
      "At": 5035,
      "สามี": 5036,
      "จัดจำหน่าย": 5037,
      "เปา": 5038,
      "จิตใจ": 5039,
      "ผู้สำเร็จ": 5040,
      "เฉลิมพระเกียรติ": 5041,
      "ดส์": 5042,
      "ดิส": 5043,
      "เอกอัครราชทูต": 5044,
      "สันตะ": 5045,
      "แม่เหล็ก": 5046,
      "Stud": 5047,
      "loc": 5048,
      "วอน": 5049,
      "มีประสิทธิภาพ": 5050,
      "เลี่ยง": 5051,
      "นักธุรกิจ": 5052,
      "มด": 5053,
      "ปาปา": 5054,
      "สันตะปาปา": 5055,
      "ทางเศรษฐกิจ": 5056,
      "เช่นนี้": 5057,
      "สมาชิกวุฒิสภา": 5058,
      "รัตนโกสินทร์": 5059,
      "เชส": 5060,
      "ตอนต้น": 5061,
      "โปรดิว": 5062,
      "โปรดิวเซอร์": 5063,
      "สุสาน": 5064,
      "ข้อตกลง": 5065,
      "ราชบุรี": 5066,
      "การเคลื่อนไหว": 5067,
      "ปลดปล่อย": 5068,
      "ฮอร์": 5069,
      "สะอาด": 5070,
      "จาค": 5071,
      "ner": 5072,
      "มุก": 5073,
      "ร่ม": 5074,
      "บริจาค": 5075,
      "มีอิทธิพล": 5076,
      "คลี": 5077,
      "คว้าแชมป์": 5078,
      "กติ": 5079,
      "ึ้ง": 5080,
      "สกอต": 5081,
      "คลับ": 5082,
      "สถานีวิทยุ": 5083,
      "ถอย": 5084,
      "อาสน": 5085,
      "ส่วนมาก": 5086,
      "สงสัย": 5087,
      "โล่": 5088,
      "app": 5089,
      "บอร์": 5090,
      "ิยม": 5091,
      "โปรตีน": 5092,
      "วชิร": 5093,
      "hi": 5094,
      "สิค": 5095,
      "ดัม": 5096,
      "เคารพ": 5097,
      "การเงิน": 5098,
      "ซื่อ": 5099,
      "มัติ": 5100,
      "น้องสาว": 5101,
      "งค์": 5102,
      "ขันธ์": 5103,
      "วส์": 5104,
      "แม็ก": 5105,
      "ทัศน": 5106,
      "ชนบท": 5107,
      "ปช": 5108,
      "เศร้า": 5109,
      "ouse": 5110,
      "สกอตแลนด์": 5111,
      "สนม": 5112,
      "มหาสารคาม": 5113,
      "ons": 5114,
      "เกาหลีเหนือ": 5115,
      "นัล": 5116,
      "แทบ": 5117,
      "aligncenter": 5118,
      "การปรับปรุง": 5119,
      "ทางสังคม": 5120,
      "ปัน": 5121,
      "๋น": 5122,
      "ปราม": 5123,
      "เปลี่ยนเป็น": 5124,
      "จินต": 5125,
      "ทาร": 5126,
      "ได้ดี": 5127,
      "แถลง": 5128,
      "Ass": 5129,
      "เสริ": 5130,
      "ครั้งหนึ่ง": 5131,
      "วลี": 5132,
      "RA": 5133,
      "ขี่": 5134,
      "ดาราศาสตร์": 5135,
      "ius": 5136,
      "พระนครศรีอยุธยา": 5137,
      "ก้อน": 5138,
      "อะตอม": 5139,
      "ella": 5140,
      "เต่า": 5141,
      "บร": 5142,
      "Mag": 5143,
      "ศุภ": 5144,
      "สีน้ำเงิน": 5145,
      "ลอส": 5146,
      "งานวิจัย": 5147,
      "การเกษตร": 5148,
      "อักเสบ": 5149,
      "ทางเดิน": 5150,
      "ก่อให้เกิด": 5151,
      "หัต": 5152,
      "กัปตัน": 5153,
      "Cal": 5154,
      "ทักษะ": 5155,
      "ค้าน": 5156,
      "Roy": 5157,
      "เนียง": 5158,
      "ลุ่ม": 5159,
      "ประจำการ": 5160,
      "ภ์": 5161,
      "ล้านนา": 5162,
      "ild": 5163,
      "สี่เหลี่ยม": 5164,
      "แอร์ไลน์": 5165,
      "อุ่น": 5166,
      "สภ": 5167,
      "rop": 5168,
      "เสื่อม": 5169,
      "ave": 5170,
      "LA": 5171,
      "โมเด": 5172,
      "ume": 5173,
      "กองทัพอากาศ": 5174,
      "รับรู้": 5175,
      "ออสการ์": 5176,
      "เจนต": 5177,
      "อัตโน": 5178,
      "อัตโนมัติ": 5179,
      "ผู้ว่าราชการ": 5180,
      "แอม": 5181,
      "เจร": 5182,
      "ศมี": 5183,
      "ผู้สำเร็จราชการ": 5184,
      "ทิว": 5185,
      "หมัด": 5186,
      "ประเสริ": 5187,
      "ประเสริฐ": 5188,
      "Ne": 5189,
      "โรม": 5190,
      "ภัทร": 5191,
      "ซม": 5192,
      "Cent": 5193,
      "นางงาม": 5194,
      "มีพลัง": 5195,
      "เก่ง": 5196,
      "ว่ายน้ำ": 5197,
      "ออง": 5198,
      "เหลียง": 5199,
      "นิติศาสตร์": 5200,
      "บาร": 5201,
      "เขน": 5202,
      "เวลส์": 5203,
      "ดวงอาทิตย์": 5204,
      "ผจญ": 5205,
      "ปน": 5206,
      "โค้": 5207,
      "นารี": 5208,
      "เภสัช": 5209,
      "เรียล": 5210,
      "เนะ": 5211,
      "จัดแสดง": 5212,
      "bert": 5213,
      "รด": 5214,
      "refer": 5215,
      "รุณ": 5216,
      "สุขา": 5217,
      "ก่อการ": 5218,
      "สูร": 5219,
      "การสำรวจ": 5220,
      "เดียม": 5221,
      "อินท": 5222,
      "Qu": 5223,
      "ux": 5224,
      "ทุกปี": 5225,
      "อดุลยเดช": 5226,
      "ตอนกลาง": 5227,
      "เม็ด": 5228,
      "อย่า": 5229,
      "ทั่วประเทศ": 5230,
      "อาย": 5231,
      "ต่างชาติ": 5232,
      "วิเศษ": 5233,
      "เวลาน": 5234,
      "SA": 5235,
      "นายพล": 5236,
      "อาร์เจนต": 5237,
      "แปลงร่าง": 5238,
      "อาร์เจนตินา": 5239,
      "หลิว": 5240,
      "โชติ": 5241,
      "ัคคี": 5242,
      "ครร": 5243,
      "สามัคคี": 5244,
      "ตื่น": 5245,
      "แน่นอน": 5246,
      "ient": 5247,
      "เปรียญ": 5248,
      "ด่วน": 5249,
      "แสวง": 5250,
      "ement": 5251,
      "Rep": 5252,
      "ทว่า": 5253,
      "เนชัน": 5254,
      "ไม่ค่อย": 5255,
      "red": 5256,
      "กิโลก": 5257,
      "กิโลกรัม": 5258,
      "โหมด": 5259,
      "ทยา": 5260,
      "เจรจา": 5261,
      "กรอง": 5262,
      "รัฐศาสตร์": 5263,
      "Cam": 5264,
      "ไหม้": 5265,
      "ฟิล์ม": 5266,
      "โต๊ะ": 5267,
      "แกล": 5268,
      "cr": 5269,
      "เมริเดียน": 5270,
      "ขณะนั้น": 5271,
      "ซีแลนด์": 5272,
      "นิวซีแลนด์": 5273,
      "นักวิทยาศาสตร์": 5274,
      "หลักทรัพย์": 5275,
      "ไต้ฝุ่น": 5276,
      "เสกสมรส": 5277,
      "yr": 5278,
      "เทิล": 5279,
      "able": 5280,
      "เกล้าเจ้าอยู่หัว": 5281,
      "ตัวเลข": 5282,
      "สโต": 5283,
      "็อบ": 5284,
      "ilm": 5285,
      "กุมารี": 5286,
      "งานเขียน": 5287,
      "ซิก": 5288,
      "ฟอ": 5289,
      "Mas": 5290,
      "มีความสำคัญ": 5291,
      "เงื่อน": 5292,
      "ระลึก": 5293,
      "คัดออก": 5294,
      "บันได": 5295,
      "กฤษ": 5296,
      "แต่เดิม": 5297,
      "หลีก": 5298,
      "ผู้สร้าง": 5299,
      "ปัง": 5300,
      "ja": 5301,
      "ใกล้ชิด": 5302,
      "จักรยาน": 5303,
      "หิต": 5304,
      "ชมรม": 5305,
      "round": 5306,
      "ตานี": 5307,
      "lex": 5308,
      "โด่ง": 5309,
      "หมิง": 5310,
      "วัยรุ่น": 5311,
      "คารา": 5312,
      "อเล็ก": 5313,
      "ละลาย": 5314,
      "Flag": 5315,
      "Rev": 5316,
      "สันติภาพ": 5317,
      "จรา": 5318,
      "มศักดิ์": 5319,
      "ta": 5320,
      "นัส": 5321,
      "oll": 5322,
      "And": 5323,
      "จิตรกร": 5324,
      "ศาสนาคริสต์": 5325,
      "สัตว์ป่า": 5326,
      "รัชทายาท": 5327,
      "png": 5328,
      "เลกุล": 5329,
      "โมเลกุล": 5330,
      "นึก": 5331,
      "นายทหาร": 5332,
      "irst": 5333,
      "สวาม": 5334,
      "อนัน": 5335,
      "ทรอน": 5336,
      "บางอย่าง": 5337,
      "ติดต่อกัน": 5338,
      "ถิ่นฐาน": 5339,
      "เยซู": 5340,
      "min": 5341,
      "นักรบ": 5342,
      "ters": 5343,
      "เซอร์แลนด์": 5344,
      "มองว่า": 5345,
      "สวิตเซอร์แลนด์": 5346,
      "Ab": 5347,
      "ซัค": 5348,
      "อิเล็กทรอน": 5349,
      "อิเล็กทรอนิกส์": 5350,
      "ชื่อดัง": 5351,
      "ศิลปากร": 5352,
      "เสพ": 5353,
      "ทางอากาศ": 5354,
      "พิชิต": 5355,
      "ofile": 5356,
      "นิวเคลียร์": 5357,
      "ปืนใหญ่": 5358,
      "It": 5359,
      "JPG": 5360,
      "ull": 5361,
      "เมฆ": 5362,
      "ไม้ตาย": 5363,
      "ลพบุรี": 5364,
      "จราจร": 5365,
      "สมุทรปราการ": 5366,
      "กอร์": 5367,
      "หลบหนี": 5368,
      "โดยเฉพาะอย่างยิ่ง": 5369,
      "ปราบปราม": 5370,
      "วิจิตร": 5371,
      "เดย์": 5372,
      "แข็งแกร่ง": 5373,
      "ความผิดปกติ": 5374,
      "สูบ": 5375,
      "ดำเนินงาน": 5376,
      "ซิส": 5377,
      "บันดาลใจ": 5378,
      "นครปฐม": 5379,
      "ไลท์": 5380,
      "บรรดาศักดิ์": 5381,
      "ลุก": 5382,
      "ปัต": 5383,
      "อิรัก": 5384,
      "กระบี่": 5385,
      "แป้ง": 5386,
      "เดวิด": 5387,
      "เหง": 5388,
      "หงส์": 5389,
      "hed": 5390,
      "ทหารราบ": 5391,
      "สเตียน": 5392,
      "งอ": 5393,
      "บาก": 5394,
      "มัสยิด": 5395,
      "กรมหลวง": 5396,
      "วัว": 5397,
      "คลึง": 5398,
      "Char": 5399,
      "pop": 5400,
      "จริต": 5401,
      "เยาว์": 5402,
      "เปลี่ยนไป": 5403,
      "ific": 5404,
      "เอเชียตะวันออกเฉียงใต้": 5405,
      "โรมา": 5406,
      "คริสเตียน": 5407,
      "หมาก": 5408,
      "ไบร": 5409,
      "พาย": 5410,
      "พื้นผิว": 5411,
      "บอส": 5412,
      "จดทะเบียน": 5413,
      "เสถ": 5414,
      "เสถียร": 5415,
      "ใช้ชีวิต": 5416,
      "ซีเรีย": 5417,
      "โบราณคดี": 5418,
      "Will": 5419,
      "เพชรบุรี": 5420,
      "วิชาชีพ": 5421,
      "นิพนธ์": 5422,
      "เกมอน": 5423,
      "โปเกมอน": 5424,
      "รับใช้": 5425,
      "โรมาเนีย": 5426,
      "เบต": 5427,
      "พรรคเพื่อ": 5428,
      "Publ": 5429,
      "ลงคะแนน": 5430,
      "ผัง": 5431,
      "เป็นเจ้าภาพ": 5432,
      "โคจร": 5433,
      "Che": 5434,
      "สุริย": 5435,
      "score": 5436,
      "ปอนด์": 5437,
      "ตำรา": 5438,
      "ดาษ": 5439,
      "เกียรติประวัติ": 5440,
      "สกล": 5441,
      "จันทน์": 5442,
      "หนี้": 5443,
      "พรรคเพื่อไทย": 5444,
      "iy": 5445,
      "mus": 5446,
      "ผึ้ง": 5447,
      "ien": 5448,
      "ลิก": 5449,
      "คล้ายคลึง": 5450,
      "ดาวน์": 5451,
      "เซย์": 5452,
      "พร้อมด้วย": 5453,
      "วรวิหาร": 5454,
      "ธิปไตย": 5455,
      "จอง": 5456,
      "ทอม": 5457,
      "สนีย์": 5458,
      "วรีย์": 5459,
      "สินธุ์": 5460,
      "SS": 5461,
      "ควัน": 5462,
      "เชน": 5463,
      "ต้นกำเนิด": 5464,
      "ings": 5465,
      "เต้": 5466,
      "คัส": 5467,
      "นครสวรรค์": 5468,
      "ทำร้าย": 5469,
      "แดด": 5470,
      "ครุ": 5471,
      "กระสุน": 5472,
      "อวัย": 5473,
      "เขื่อน": 5474,
      "สีน้ำตาล": 5475,
      "comp": 5476,
      "รีย์": 5477,
      "ฮินดู": 5478,
      "อวัยวะ": 5479,
      "วันอาทิตย์": 5480,
      "เกลือ": 5481,
      "จุน": 5482,
      "ขีด": 5483,
      "คุย": 5484,
      "แรงบันดาลใจ": 5485,
      "ondon": 5486,
      "ลำพูน": 5487,
      "edia": 5488,
      "วุย": 5489,
      "เบื้องต้น": 5490,
      "ชนชั้น": 5491,
      "เชื่อมโยง": 5492,
      "ชุน": 5493,
      "วงจร": 5494,
      "เรียบเรียง": 5495,
      "นิง": 5496,
      "ผสาน": 5497,
      "ยั้ง": 5498,
      "มอญ": 5499,
      "มอบหมาย": 5500,
      "aph": 5501,
      "ทาส": 5502,
      "ลุย": 5503,
      "วิทย์": 5504,
      "นาร์": 5505,
      "ฟลอ": 5506,
      "เช่า": 5507,
      "สอดคล้อง": 5508,
      "นิสิต": 5509,
      "แจ็ก": 5510,
      "IC": 5511,
      "ชฌ": 5512,
      "๊ค": 5513,
      "คุณค่า": 5514,
      "สาคร": 5515,
      "sub": 5516,
      "วดาร": 5517,
      "พงศาวดาร": 5518,
      "เฮนรี": 5519,
      "สาวรีย์": 5520,
      "rev": 5521,
      "ก้าวหน้า": 5522,
      "สำเนียง": 5523,
      "บรรย": 5524,
      "ทวีปอเมริกา": 5525,
      "บรรยากาศ": 5526,
      "โด่งดัง": 5527,
      "ทวิ": 5528,
      "การปฏิรูป": 5529,
      "ในเครือ": 5530,
      "สแต": 5531,
      "เนา": 5532,
      "บริสุทธิ์": 5533,
      "รุ่งเรือง": 5534,
      "อัป": 5535,
      "แสดงถึง": 5536,
      "หลอดเลือด": 5537,
      "แคม": 5538,
      "วงกลม": 5539,
      "สมัครเล่น": 5540,
      "Pa": 5541,
      "มป์": 5542,
      "นักบิน": 5543,
      "แผนการ": 5544,
      "ผัน": 5545,
      "มิวสิค": 5546,
      "American": 5547,
      "ประมวล": 5548,
      "ใช้จ่าย": 5549,
      "วัยเด็ก": 5550,
      "ให้เสียง": 5551,
      "ida": 5552,
      "Sing": 5553,
      "เหยื่อ": 5554,
      "เวส": 5555,
      "Str": 5556,
      "mon": 5557,
      "ora": 5558,
      "อนุภาค": 5559,
      "จัดตั้งขึ้น": 5560,
      "ิร์ฟ": 5561,
      "ope": 5562,
      "colspan": 5563,
      "กั้น": 5564,
      "ทั้งหลาย": 5565,
      "เนื่องใน": 5566,
      "บง": 5567,
      "เป็นที่นิยม": 5568,
      "ส่วนประกอบ": 5569,
      "ที่ทำการ": 5570,
      "พัฒนาการ": 5571,
      "เงื่อนไข": 5572,
      "่ห์": 5573,
      "ose": 5574,
      "ปทุมธานี": 5575,
      "เลขที่": 5576,
      "เชื้อเพลิง": 5577,
      "จันทร": 5578,
      "จังหวะ": 5579,
      "นอกเหนือ": 5580,
      "Book": 5581,
      "อภัย": 5582,
      "นามสกุล": 5583,
      "บ่ง": 5584,
      "แท่น": 5585,
      "ปีการศึกษา": 5586,
      "นัดดา": 5587,
      "ott": 5588,
      "Rec": 5589,
      "irl": 5590,
      "tain": 5591,
      "ersion": 5592,
      "โธ": 5593,
      "ยอดนิยม": 5594,
      "ฬิกา": 5595,
      "เหรียญเงิน": 5596,
      "พระพุทธเจ้า": 5597,
      "๊ด": 5598,
      "ความหลากหลาย": 5599,
      "ผู้สนับสนุน": 5600,
      "ซอล": 5601,
      "เทพเจ้า": 5602,
      "Pet": 5603,
      "ขาม": 5604,
      "ทซ์": 5605,
      "สลาก": 5606,
      "นักมวย": 5607,
      "ธรรมเนียม": 5608,
      "ค้าง": 5609,
      "เณ": 5610,
      "ครอบครอง": 5611,
      "bur": 5612,
      "คาบสมุทร": 5613,
      "na": 5614,
      "สไตล์": 5615,
      "ลายู": 5616,
      "ตัม": 5617,
      "ปะทะ": 5618,
      "Super": 5619,
      "ลัด": 5620,
      "ทางวัฒนธรรม": 5621,
      "โอง": 5622,
      "Engl": 5623,
      "พันปี": 5624,
      "โองการ": 5625,
      "วาล": 5626,
      "ปัส": 5627,
      "ประโยค": 5628,
      "We": 5629,
      "ของวัด": 5630,
      "นตร์": 5631,
      "Pe": 5632,
      "นิคม": 5633,
      "ดวงจันทร์": 5634,
      "นิเวศ": 5635,
      "dd": 5636,
      "ตับ": 5637,
      "วิกฤต": 5638,
      "พระเยซู": 5639,
      "สน์": 5640,
      "โขง": 5641,
      "ทิศทาง": 5642,
      "ดั": 5643,
      "ดัต": 5644,
      "aps": 5645,
      "BS": 5646,
      "คลิน": 5647,
      "วัตถุประสงค์": 5648,
      "คำถาม": 5649,
      "มกุฎ": 5650,
      "เบธ": 5651,
      "ศรีนคริน": 5652,
      "London": 5653,
      "ซือ": 5654,
      "ital": 5655,
      "des": 5656,
      "นตา": 5657,
      "แลกเปลี่ยน": 5658,
      "ลงสมัคร": 5659,
      "Part": 5660,
      "สำรอง": 5661,
      "earch": 5662,
      "สถาปนิก": 5663,
      "อ้วน": 5664,
      "นเร": 5665,
      "นาการ": 5666,
      "นางสาว": 5667,
      "ชาร์ด": 5668,
      "กรุ๊ป": 5669,
      "หลอก": 5670,
      "Cor": 5671,
      "UN": 5672,
      "ทางเหนือ": 5673,
      "พร้อมกัน": 5674,
      "คัง": 5675,
      "อังคาร": 5676,
      "จูด": 5677,
      "ทวีปยุโรป": 5678,
      "UTC": 5679,
      "พึ่ง": 5680,
      "อิก": 5681,
      "roup": 5682,
      "oy": 5683,
      "กัก": 5684,
      "สำนักงานเขต": 5685,
      "ครา": 5686,
      "เจิ": 5687,
      "ท็อป": 5688,
      "กองกลาง": 5689,
      "เอ็ดเวิร์ด": 5690,
      "Web": 5691,
      "พระสงฆ์": 5692,
      "คำแหง": 5693,
      "บรรณา": 5694,
      "ทุกข์": 5695,
      "คริสตจักร": 5696,
      "นัม": 5697,
      "๋อง": 5698,
      "วินัย": 5699,
      "เหรียญทองแดง": 5700,
      "เพียงแค่": 5701,
      "uch": 5702,
      "ต่าน": 5703,
      "รัศมี": 5704,
      "IV": 5705,
      "ติช": 5706,
      "ผจญภัย": 5707,
      "ior": 5708,
      "ได้ยิน": 5709,
      "บริติช": 5710,
      "ชาติพันธุ์": 5711,
      "กล้วย": 5712,
      "เต็มที่": 5713,
      "เบื้องหลัง": 5714,
      "lit": 5715,
      "ปักกิ่ง": 5716,
      "แผล": 5717,
      "ตรัง": 5718,
      "ครรภ์": 5719,
      "จิง": 5720,
      "ไลฟ์": 5721,
      "Awards": 5722,
      "ย่อม": 5723,
      "ยธรรม": 5724,
      "อิฐ": 5725,
      "พับ": 5726,
      "Sou": 5727,
      "ook": 5728,
      "สิ้นสุดลง": 5729,
      "Royal": 5730,
      "จิตวิทยา": 5731,
      "ลวง": 5732,
      "กษา": 5733,
      "ระดับสูง": 5734,
      "มนตร์": 5735,
      "ขับไล่": 5736,
      "ภาพรวม": 5737,
      "ha": 5738,
      "รามคำแหง": 5739,
      "กรีฑา": 5740,
      "เราะ": 5741,
      "เจ้าจอม": 5742,
      "Ger": 5743,
      "ฝ่า": 5744,
      "เป็นระบบ": 5745,
      "ศรีสะ": 5746,
      "แอป": 5747,
      "ศรีสะเกษ": 5748,
      "led": 5749,
      "มหาวิทยาลัยเกษตรศาสตร์": 5750,
      "คณะกรรมาธิการ": 5751,
      "ริเริ่ม": 5752,
      "ชนม": 5753,
      "บำบัด": 5754,
      "กองพัน": 5755,
      "เลิฟ": 5756,
      "อัศวิน": 5757,
      "ari": 5758,
      "เป็นเจ้าของ": 5759,
      "Arch": 5760,
      "กองพล": 5761,
      "ฟาร์": 5762,
      "ผู้ทรง": 5763,
      "กระโดด": 5764,
      "Direct": 5765,
      "แม่ทัพ": 5766,
      "ตกเป็น": 5767,
      "ourn": 5768,
      "สุขาภิบาล": 5769,
      "ดิสนีย์": 5770,
      "ษี": 5771,
      "ศาสนิก": 5772,
      "ศาสนิกชน": 5773,
      "ery": 5774,
      "ปฏิวัติ": 5775,
      "รต": 5776,
      "รัล": 5777,
      "ภาษาจีน": 5778,
      "สมณ": 5779,
      "แบ่งกลุ่ม": 5780,
      "เซอร์เบีย": 5781,
      "อล์ฟ": 5782,
      "OR": 5783,
      "que": 5784,
      "oo": 5785,
      "สุลต่าน": 5786,
      "วิกิ": 5787,
      "บุคลากร": 5788,
      "ทำเป็น": 5789,
      "ธิต": 5790,
      "ผืน": 5791,
      "ความเสี่ยง": 5792,
      "กังวล": 5793,
      "สุก": 5794,
      "atus": 5795,
      "lin": 5796,
      "จูเนียร์": 5797,
      "ดจ์": 5798,
      "ที่สี่": 5799,
      "คุณหญิง": 5800,
      "คลา": 5801,
      "มีเดีย": 5802,
      "ซีดี": 5803,
      "ใบไม้": 5804,
      "ตะก": 5805,
      "พวง": 5806,
      "่าร": 5807,
      "ประติ": 5808,
      "สุดยอด": 5809,
      "ขอบเขต": 5810,
      "เปอร์เซีย": 5811,
      "พฤหัส": 5812,
      "หัด": 5813,
      "ปลอม": 5814,
      "แม้แต่": 5815,
      "พลเมือง": 5816,
      "Jun": 5817,
      "tra": 5818,
      "ki": 5819,
      "พื้นดิน": 5820,
      "ตุ๊ก": 5821,
      "ด้านบน": 5822,
      "ล่มสลาย": 5823,
      "ร็อค": 5824,
      "ทางตะวันตก": 5825,
      "กระดาษ": 5826,
      "สังเคราะห์": 5827,
      "ทุกอย่าง": 5828,
      "ภูเก็ต": 5829,
      "ชิป": 5830,
      "สำนักงานใหญ่": 5831,
      "วดา": 5832,
      "นาฏ": 5833,
      "ถั่ว": 5834,
      "จินดา": 5835,
      "ฉุก": 5836,
      "บันทึกเสียง": 5837,
      "ทางแยก": 5838,
      "stit": 5839,
      "เปล่า": 5840,
      "หม้อ": 5841,
      "เนล": 5842,
      "report": 5843,
      "พุ่ม": 5844,
      "Colle": 5845,
      "ience": 5846,
      "ดอ": 5847,
      "ือด": 5848,
      "กรีน": 5849,
      "หาญ": 5850,
      "สเตชัน": 5851,
      "ดัตช์": 5852,
      "ทัต": 5853,
      "อนุชา": 5854,
      "ผู้กำกับภาพยนตร์": 5855,
      "หลายชนิด": 5856,
      "ทักษิ": 5857,
      "รังสิต": 5858,
      "อดอล": 5859,
      "ปราคา": 5860,
      "ไอดอล": 5861,
      "สมุน": 5862,
      "กันที่": 5863,
      "แนวทาง": 5864,
      "AT": 5865,
      "อัฟ": 5866,
      "English": 5867,
      "เจ้าน": 5868,
      "สนามบิน": 5869,
      "ยีน": 5870,
      "เสมือน": 5871,
      "ฉุกเฉิน": 5872,
      "คที": 5873,
      "บังคับบัญชา": 5874,
      "ิส": 5875,
      "พร้าว": 5876,
      "เจ้านาย": 5877,
      "สาธิต": 5878,
      "OP": 5879,
      "eat": 5880,
      "อสูร": 5881,
      "เอ็ก": 5882,
      "ผลไม้": 5883,
      "ดาวเทียม": 5884,
      "จุดเริ่มต้น": 5885,
      "วารสาร": 5886,
      "โดยรวม": 5887,
      "สุราษฎร์": 5888,
      "มิล": 5889,
      "ดุสิต": 5890,
      "สมมติ": 5891,
      "Mod": 5892,
      "แต่ว": 5893,
      "aceae": 5894,
      "Er": 5895,
      "ve": 5896,
      "ces": 5897,
      "แมง": 5898,
      "ขั้วโลก": 5899,
      "นาฬิกา": 5900,
      "เท่ากัน": 5901,
      "สมการ": 5902,
      "IT": 5903,
      "อาญา": 5904,
      "ที่ราบ": 5905,
      "ID": 5906,
      "ท่วม": 5907,
      "บริหารธุรกิจ": 5908,
      "Eur": 5909,
      "เพื่อที่จะ": 5910,
      "อาคารเรียน": 5911,
      "ครบรอบ": 5912,
      "มีปัญหา": 5913,
      "year": 5914,
      "โจโฉ": 5915,
      "ไลต์": 5916,
      "คอนกรี": 5917,
      "จืด": 5918,
      "ถึงแม้ว่า": 5919,
      "อุทิศ": 5920,
      "Sw": 5921,
      "เชษฐา": 5922,
      "ซ็อง": 5923,
      "vent": 5924,
      "ไฮโดร": 5925,
      "บ้า": 5926,
      "ura": 5927,
      "ยำ": 5928,
      "ล่ง": 5929,
      "Sec": 5930,
      "เทป": 5931,
      "คาส": 5932,
      "ets": 5933,
      "นีย์": 5934,
      "ขุนพล": 5935,
      "Mat": 5936,
      "erg": 5937,
      "ize": 5938,
      "อธิบดี": 5939,
      "way": 5940,
      "จิ้น": 5941,
      "หัวหน้าพรรค": 5942,
      "แซง": 5943,
      "eral": 5944,
      "เอเชียนเกมส์": 5945,
      "สาระ": 5946,
      "รถถัง": 5947,
      "ศาสตรบัณฑิต": 5948,
      "พลา": 5949,
      "ฮอต": 5950,
      "Dec": 5951,
      "new": 5952,
      "รมย์": 5953,
      "ยิ้ม": 5954,
      "Inf": 5955,
      "ford": 5956,
      "ราชสกุล": 5957,
      "รายน": 5958,
      "location": 5959,
      "พราน": 5960,
      "ดูเหมือน": 5961,
      "ฟราน": 5962,
      "โศก": 5963,
      "ดีกว่า": 5964,
      "ปลายปี": 5965,
      "พริก": 5966,
      "เจต": 5967,
      "ธิเบ": 5968,
      "จรร": 5969,
      "้อก": 5970,
      "หลิน": 5971,
      "ดีน": 5972,
      "บางกอก": 5973,
      "คอนกรีต": 5974,
      "เนตร": 5975,
      "แอฟริกาใต้": 5976,
      "Dav": 5977,
      "ความเข้าใจ": 5978,
      "วิทยาการ": 5979,
      "Met": 5980,
      "ริชาร์ด": 5981,
      "ength": 5982,
      "ประเมิน": 5983,
      "พากษ์": 5984,
      "Day": 5985,
      "ES": 5986,
      "คลาสสิก": 5987,
      "คนไทย": 5988,
      "อุตร": 5989,
      "ถุง": 5990,
      "oid": 5991,
      "คีย์": 5992,
      "กระบวน": 5993,
      "any": 5994,
      "ปากี": 5995,
      "May": 5996,
      "ผลัก": 5997,
      "ปม": 5998,
      "นักวิจารณ์": 5999,
      "ตัวผู้": 6000,
      "โถ": 6001,
      "พระศพ": 6002,
      "ยิ่งขึ้น": 6003,
      "ห้าง": 6004,
      "นเรศวร": 6005,
      "ย็อน": 6006,
      "anth": 6007,
      "ทีน": 6008,
      "เชิงอรรถ": 6009,
      "รายนาม": 6010,
      "ฮอ": 6011,
      "นาวี": 6012,
      "eph": 6013,
      "แมตช์": 6014,
      "บาลี": 6015,
      "Tag": 6016,
      "หนะ": 6017,
      "ล์ม": 6018,
      "stadium": 6019,
      "Short": 6020,
      "เบอร์ลิน": 6021,
      "พระราม": 6022,
      "ene": 6023,
      "กลไก": 6024,
      "บ่อยครั้ง": 6025,
      "HD": 6026,
      "จับสลาก": 6027,
      "ผู้รักษา": 6028,
      "ผู้เชี่ยวชาญ": 6029,
      "เตา": 6030,
      "ตัก": 6031,
      "พัทธ": 6032,
      "สภาวะ": 6033,
      "ภาษณ์": 6034,
      "นิษฐา": 6035,
      "School": 6036,
      "อรุณ": 6037,
      "แกง": 6038,
      "ประจำตัว": 6039,
      "Inter": 6040,
      "กระทรวงกลาโหม": 6041,
      "ทูบ": 6042,
      "สุราษฎร์ธานี": 6043,
      "MS": 6044,
      "สกา": 6045,
      "แอตแลน": 6046,
      "ากรรม": 6047,
      "ชนี": 6048,
      "เพิ่ง": 6049,
      "หม่อมหลวง": 6050,
      "สวัสดิ": 6051,
      "ข้างเคียง": 6052,
      "มอบให้": 6053,
      "ทักษิณ": 6054,
      "จรรย์": 6055,
      "inter": 6056,
      "formation": 6057,
      "นาร": 6058,
      "สุขุม": 6059,
      "ตร์": 6060,
      "เชิด": 6061,
      "แบบจำลอง": 6062,
      "อุทัย": 6063,
      "ทิม": 6064,
      "โมะ": 6065,
      "บล็อก": 6066,
      "บรรลุ": 6067,
      "iation": 6068,
      "ไทม์": 6069,
      "work": 6070,
      "ฎก": 6071,
      "ลืม": 6072,
      "วจะ": 6073,
      "จนบุรี": 6074,
      "กาญจนบุรี": 6075,
      "สมควร": 6076,
      "ทวีปเอเชีย": 6077,
      "เช่นเดียวกัน": 6078,
      "ฝาก": 6079,
      "ส่อง": 6080,
      "สามเหลี่ยม": 6081,
      "น้อยที่สุด": 6082,
      "สถานศึกษา": 6083,
      "trans": 6084,
      "นึง": 6085,
      "สัมภาษณ์": 6086,
      "อาชญากรรม": 6087,
      "ประติมาก": 6088,
      "แฝด": 6089,
      "กาฬสินธุ์": 6090,
      "เทิน": 6091,
      "อ้า": 6092,
      "ามัย": 6093,
      "ความดัน": 6094,
      "บรรเลง": 6095,
      "วิว": 6096,
      "พระภิกษุ": 6097,
      "ต้นปี": 6098,
      "สังข": 6099,
      "ปากีสถาน": 6100,
      "ream": 6101,
      "เถียง": 6102,
      "ญญ": 6103,
      "เรียบร้อย": 6104,
      "ครั้น": 6105,
      "official": 6106,
      "แบคที": 6107,
      "คูณ": 6108,
      "แบคทีเรีย": 6109,
      "Kn": 6110,
      "ole": 6111,
      "ความจำ": 6112,
      "วาท": 6113,
      "och": 6114,
      "CE": 6115,
      "net": 6116,
      "ครี": 6117,
      "ชีววิทยา": 6118,
      "Op": 6119,
      "https": 6120,
      "attend": 6121,
      "พฤหัสบดี": 6122,
      "คุ้มกัน": 6123,
      "เทนนิส": 6124,
      "Life": 6125,
      "ฟอน": 6126,
      "แล้วก็": 6127,
      "match": 6128,
      "wh": 6129,
      "ผ่อน": 6130,
      "แมก": 6131,
      "ชีวภาพ": 6132,
      "ปัตตานี": 6133,
      "ก็ดี": 6134,
      "High": 6135,
      "คาร์บอน": 6136,
      "ชื้น": 6137,
      "ริยะ": 6138,
      "amm": 6139,
      "จ๊ก": 6140,
      "วด์": 6141,
      "คำศัพท์": 6142,
      "por": 6143,
      "Christ": 6144,
      "AF": 6145,
      "พาหนะ": 6146,
      "ครั้งสุดท้าย": 6147,
      "idge": 6148,
      "หายใจ": 6149,
      "เวทมนตร์": 6150,
      "ดิตถ์": 6151,
      "วินโด": 6152,
      "ธัญ": 6153,
      "เสด็จพระราช": 6154,
      "ฉีด": 6155,
      "หมายความ": 6156,
      "ument": 6157,
      "วินโดวส์": 6158,
      "ชนมายุ": 6159,
      "ji": 6160,
      "referee": 6161,
      "เมต": 6162,
      "มม": 6163,
      "ปิฎก": 6164,
      "จันทบุรี": 6165,
      "โหวต": 6166,
      "ulation": 6167,
      "ถิ่นกำเนิด": 6168,
      "avy": 6169,
      "ชวา": 6170,
      "ต้ม": 6171,
      "บิด": 6172,
      "ละครเวที": 6173,
      "Conc": 6174,
      "attendance": 6175,
      "โควิด": 6176,
      "BO": 6177,
      "ธรรมา": 6178,
      "ชำระ": 6179,
      "เรนซ์": 6180,
      "amil": 6181,
      "นำไปใช้": 6182,
      "Ag": 6183,
      "ประเทศไทย": 6184,
      "แห่งประเทศไทย": 6185,
      "วูด": 6186,
      "เตียว": 6187,
      "ธิวาส": 6188,
      "กระบอก": 6189,
      "ซาเบธ": 6190,
      "สไตน์": 6191,
      "ปรัสเซีย": 6192,
      "ไขมัน": 6193,
      "ร้อยเอ็ด": 6194,
      "CD": 6195,
      "xpx": 6196,
      "United": 6197,
      "พระธรรม": 6198,
      "ทหารเรือ": 6199,
      "อนุบาล": 6200,
      "Ang": 6201,
      "ฮุ": 6202,
      "Summary": 6203,
      "ทางเข้า": 6204,
      "lev": 6205,
      "ผู้เขียน": 6206,
      "ตินิยม": 6207,
      "กต": 6208,
      "ในกรณี": 6209,
      "ถึงแก": 6210,
      "คอง": 6211,
      "ทางการแพทย์": 6212,
      "เมท": 6213,
      "โฉม": 6214,
      "ภาพถ่าย": 6215,
      "เอนเตอร์เทนเมนต์": 6216,
      "แลง": 6217,
      "ผู้อื่น": 6218,
      "ME": 6219,
      "เวิร์ค": 6220,
      "แง่": 6221,
      "เอียง": 6222,
      "ography": 6223,
      "แพล": 6224,
      "มหาภูมิพล": 6225,
      "กองหน้า": 6226,
      "ปอด": 6227,
      "ures": 6228,
      "คัล": 6229,
      "การตอบรับ": 6230,
      "คนไข้": 6231,
      "ดาวฤกษ์": 6232,
      "กติกา": 6233,
      "นิด": 6234,
      "่ย์": 6235,
      "มีน": 6236,
      "เสนาบดี": 6237,
      "One": 6238,
      "กรมหมื่น": 6239,
      "เสด็จพระราชดำเนิน": 6240,
      "มอล": 6241,
      "iety": 6242,
      "Girl": 6243,
      "ขับเคลื่อน": 6244,
      "rit": 6245,
      "ลัม": 6246,
      "hel": 6247,
      "รวย": 6248,
      "บาต": 6249,
      "กส์": 6250,
      "โลหิต": 6251,
      "บิ๊ก": 6252,
      "aut": 6253,
      "คาน": 6254,
      "ต้อน": 6255,
      "สมเด็จพระนาง": 6256,
      "ต้นแบบ": 6257,
      "สู้รบ": 6258,
      "ลี้ภัย": 6259,
      "เกษตรกรรม": 6260,
      "สมเด็จพระนางเจ้า": 6261,
      "ush": 6262,
      "ทิเบต": 6263,
      "ator": 6264,
      "ค่าใช้จ่าย": 6265,
      "ลดา": 6266,
      "สารประกอบ": 6267,
      "มาร์ค": 6268,
      "จิม": 6269,
      "หลวงปู่": 6270,
      "พรา": 6271,
      "อาเซียน": 6272,
      "โคลน": 6273,
      "ะฮ์": 6274,
      "WA": 6275,
      "ทารก": 6276,
      "นักประวัติศาสตร์": 6277,
      "ka": 6278,
      "ural": 6279,
      "เที่ยง": 6280,
      "หลายอย่าง": 6281,
      "โปรโม": 6282,
      "หมวก": 6283,
      "เพน": 6284,
      "oto": 6285,
      "IA": 6286,
      "ที่พัก": 6287,
      "ดีขึ้น": 6288,
      "ตั้งถิ่นฐาน": 6289,
      "ชื่นชอบ": 6290,
      "อุตรดิตถ์": 6291,
      "คัม": 6292,
      "แอตแลนติก": 6293,
      "ron": 6294,
      "จนา": 6295,
      "ระดับนานาชาติ": 6296,
      "ากรณ์": 6297,
      "เลขานุ": 6298,
      "Black": 6299,
      "เลขานุการ": 6300,
      "จัตุ": 6301,
      "กายภาพ": 6302,
      "อเล็กซาน": 6303,
      "เป็นประจำ": 6304,
      "างค์": 6305,
      "สภาน": 6306,
      "ประชาสัมพันธ์": 6307,
      "Rock": 6308,
      "พิง": 6309,
      "ผู้ประกาศ": 6310,
      "สันหลัง": 6311,
      "เรียนรู้": 6312,
      "ประธานกรรมการ": 6313,
      "ฟินแลนด์": 6314,
      "หลุด": 6315,
      "era": 6316,
      "ลวดลาย": 6317,
      "ms": 6318,
      "เซโล": 6319,
      "ขึ้นทะเบียน": 6320,
      "บาร์เซโล": 6321,
      "พราหม": 6322,
      "หน้ากาก": 6323,
      "City": 6324,
      "uz": 6325,
      "อัญเชิญ": 6326,
      "ตรงกัน": 6327,
      "Phil": 6328,
      "๒๕": 6329,
      "เดิล": 6330,
      "เครียด": 6331,
      "การตลาด": 6332,
      "Time": 6333,
      "เสด็จสวรรคต": 6334,
      "วิศวกรรมศาสตร์": 6335,
      "เหลืออยู่": 6336,
      "เค้า": 6337,
      "ตามหา": 6338,
      "คลินิก": 6339,
      "urn": 6340,
      "EpisodeNumber": 6341,
      "บาร์เซโลนา": 6342,
      "ขโม": 6343,
      "ชรา": 6344,
      "เทวดา": 6345,
      "ขโมย": 6346,
      "alk": 6347,
      "สัตว์เลี้ยง": 6348,
      "จู่": 6349,
      "Ret": 6350,
      "Miss": 6351,
      "ผิวหนัง": 6352,
      "โดะ": 6353,
      "นิ่ง": 6354,
      "นิเทศ": 6355,
      "Tw": 6356,
      "เจก": 6357,
      "พะเยา": 6358,
      "โกลด์": 6359,
      "สถิต": 6360,
      "Pal": 6361,
      "ีน": 6362,
      "เฟซ": 6363,
      "Song": 6364,
      "ลัส": 6365,
      "นินจา": 6366,
      "กุด": 6367,
      "ทัว": 6368,
      "สภานิติ": 6369,
      "ยืด": 6370,
      "เซียม": 6371,
      "สภานิติบัญญัติ": 6372,
      "แห่": 6373,
      "เบะ": 6374,
      "โหลด": 6375,
      "nbspnbsp": 6376,
      "arch": 6377,
      "บรรพบุรุษ": 6378,
      "Jul": 6379,
      "ซาม": 6380,
      "ไซด์": 6381,
      "สัมพันธมิตร": 6382,
      "มอเตอร์": 6383,
      "บังคับการ": 6384,
      "พี่สาว": 6385,
      "สอบสวน": 6386,
      "ข้น": 6387,
      "ใช้กับ": 6388,
      "Leg": 6389,
      "ความทรง": 6390,
      "icens": 6391,
      "แจก": 6392,
      "ความทรงจำ": 6393,
      "ลอร์ด": 6394,
      "ซั่น": 6395,
      "นวล": 6396,
      "พิบูล": 6397,
      "เหมือง": 6398,
      "เด็ด": 6399,
      "พันธรัฐ": 6400,
      "ซัว": 6401,
      "โญ": 6402,
      "ร้าง": 6403,
      "ino": 6404,
      "สวามี": 6405,
      "Bi": 6406,
      "Li": 6407,
      "ที่อยู่อาศัย": 6408,
      "อิบ": 6409,
      "มาดริด": 6410,
      "รัตนา": 6411,
      "ฆัง": 6412,
      "การยกย่อง": 6413,
      "ได้รับการยกย่อง": 6414,
      "นั่นเอง": 6415,
      "พรมแดน": 6416,
      "มหาวิทยาลัยมหิดล": 6417,
      "บุคลิก": 6418,
      "ฎีกา": 6419,
      "LE": 6420,
      "ler": 6421,
      "พร้อมทั้ง": 6422,
      "ตลอดเวลา": 6423,
      "มีมติ": 6424,
      "โรงภาพยนตร์": 6425,
      "มาศ": 6426,
      "สร้อย": 6427,
      "ซีเกมส์": 6428,
      "อัสสัม": 6429,
      "วเวอร์": 6430,
      "เนียบ": 6431,
      "พลอย": 6432,
      "คู่แข่ง": 6433,
      "ipp": 6434,
      "ลูกค้า": 6435,
      "าละ": 6436,
      "ลาออก": 6437,
      "อาวุ": 6438,
      "CH": 6439,
      "อาวุโส": 6440,
      "ษฏ": 6441,
      "ส่วนภูมิภาค": 6442,
      "hist": 6443,
      "โรมันคาทอลิก": 6444,
      "อธิการบดี": 6445,
      "มัตสึ": 6446,
      "โยะ": 6447,
      "ฟอง": 6448,
      "ราชกุมาร": 6449,
      "ระฆัง": 6450,
      "รัด": 6451,
      "ยอน": 6452,
      "ibr": 6453,
      "นีย": 6454,
      "ยิม": 6455,
      "ทาวน์": 6456,
      "ปุ่ม": 6457,
      "ทำเนียบ": 6458,
      "โฟน": 6459,
      "สถานเอกอัครราชทูต": 6460,
      "อนุสาวรีย์": 6461,
      "ฟูจิ": 6462,
      "vol": 6463,
      "ชื่อเสียง": 6464,
      "ตารางวา": 6465,
      "รื้อ": 6466,
      "แพ้คะแนน": 6467,
      "ราญ": 6468,
      "ตัวตน": 6469,
      "สหกรณ์": 6470,
      "องค์การบริหารส่วนจังหวัด": 6471,
      "Do": 6472,
      "เตน": 6473,
      "วัณ": 6474,
      "กุฏิ": 6475,
      "Code": 6476,
      "พรรคพลัง": 6477,
      "กานิ": 6478,
      "ายณ์": 6479,
      "หนองคาย": 6480,
      "พื้นบ้าน": 6481,
      "ศาสนาอิสลาม": 6482,
      "อัฟกานิ": 6483,
      "อัฟกานิสถาน": 6484,
      "จตุ": 6485,
      "โรเบิร์ต": 6486,
      "อนามัย": 6487,
      "cess": 6488,
      "เลา": 6489,
      "inn": 6490,
      "เรื่องสั้น": 6491,
      "สกลนคร": 6492,
      "ลู่": 6493,
      "ข้อก": 6494,
      "น้ำทะเล": 6495,
      "บุน": 6496,
      "ยกทัพ": 6497,
      "ได้ที่": 6498,
      "สงครามกลางเมือง": 6499,
      "ett": 6500,
      "นราธิวาส": 6501,
      "BF": 6502,
      "รณ": 6503,
      "เจลิส": 6504,
      "Bro": 6505,
      "มกุฎราชกุมาร": 6506,
      "เฟีย": 6507,
      "SE": 6508,
      "ซุป": 6509,
      "พระเจ้าอยู่หัว": 6510,
      "เท่าที่": 6511,
      "เณร": 6512,
      "เกิร์ล": 6513,
      "ลงโทษ": 6514,
      "ปรารถ": 6515,
      "ปรารถนา": 6516,
      "ตร้า": 6517,
      "วีระ": 6518,
      "yo": 6519,
      "อ็อง": 6520,
      "ที่นั่น": 6521,
      "บ้านเกิด": 6522,
      "แต่ว่า": 6523,
      "โดยปกติ": 6524,
      "อุล": 6525,
      "type": 6526,
      "เสพติด": 6527,
      "เนชันแนล": 6528,
      "DA": 6529,
      "ธีร": 6530,
      "Class": 6531,
      "บุตรสาว": 6532,
      "RelDate": 6533,
      "Brit": 6534,
      "กรร": 6535,
      "ตามกฎหมาย": 6536,
      "Can": 6537,
      "ติง": 6538,
      "นารายณ์": 6539,
      "จัดงาน": 6540,
      "ที่นี่": 6541,
      "หลับ": 6542,
      "weight": 6543,
      "Mac": 6544,
      "แย่ง": 6545,
      "Live": 6546,
      "Line": 6547,
      "นักวิจัย": 6548,
      "แด่": 6549,
      "นาญ": 6550,
      "ร่วมสมัย": 6551,
      "สะกด": 6552,
      "กล่าวคือ": 6553,
      "News": 6554,
      "เสื้อผ้า": 6555,
      "ena": 6556,
      "โป่ง": 6557,
      "บูรพา": 6558,
      "กำลังจะ": 6559,
      "พ่อแม่": 6560,
      "ทัด": 6561,
      "Gold": 6562,
      "ที่ประชุม": 6563,
      "ประสิทธิ์": 6564,
      "ผู้เข้า": 6565,
      "หัวเมือง": 6566,
      "ล้อมรอบ": 6567,
      "เทรา": 6568,
      "เชิงเทรา": 6569,
      "ฉะเชิงเทรา": 6570,
      "สมภพ": 6571,
      "สงวน": 6572,
      "ke": 6573,
      "เดือด": 6574,
      "กองทุน": 6575,
      "อาระ": 6576,
      "แต่งกาย": 6577,
      "ครั้งนั้น": 6578,
      "เพลงชาติ": 6579,
      "บุนนาค": 6580,
      "แล้": 6581,
      "ซง": 6582,
      "โกรธ": 6583,
      "ถึงแก่อ": 6584,
      "พุธ": 6585,
      "nd": 6586,
      "chn": 6587,
      "ผสมผสาน": 6588,
      "OC": 6589,
      "เนื่องมาจาก": 6590,
      "ทรรศ": 6591,
      "การพิจารณา": 6592,
      "Mich": 6593,
      "Ele": 6594,
      "ฮีโร่": 6595,
      "ประจวบ": 6596,
      "Licens": 6597,
      "rain": 6598,
      "หฺ": 6599,
      "ideo": 6600,
      "ผู้ครอง": 6601,
      "สุภาพ": 6602,
      "els": 6603,
      "โสภ": 6604,
      "นอกเหนือจาก": 6605,
      "ชื่นชม": 6606,
      "ร่วง": 6607,
      "หวง": 6608,
      "Des": 6609,
      "val": 6610,
      "เมรุ": 6611,
      "มาสเตอร์": 6612,
      "แผง": 6613,
      "สบาย": 6614,
      "แบล็ก": 6615,
      "ฟ้อง": 6616,
      "เนชั่น": 6617,
      "ished": 6618,
      "gu": 6619,
      "ความรับผิดชอบ": 6620,
      "สบ": 6621,
      "อุลตร้า": 6622,
      "ถล่ม": 6623,
      "วนา": 6624,
      "มอส": 6625,
      "โนเบล": 6626,
      "กวาด": 6627,
      "ต่อกัน": 6628,
      "ออกซิ": 6629,
      "แล้วเสร็จ": 6630,
      "เภา": 6631,
      "ด้วยเหตุ": 6632,
      "วุ่น": 6633,
      "พระอุโบสถ": 6634,
      "เอลิ": 6635,
      "che": 6636,
      "วียน": 6637,
      "ชินวัตร": 6638,
      "ยัติ": 6639,
      "นาวา": 6640,
      "กราฟ": 6641,
      "ext": 6642,
      "ลึ": 6643,
      "ซีซั่น": 6644,
      "จัตุรัส": 6645,
      "di": 6646,
      "ชิงตัน": 6647,
      "วอชิงตัน": 6648,
      "จาม": 6649,
      "พระประธาน": 6650,
      "คนละ": 6651,
      "Spec": 6652,
      "Mc": 6653,
      "พระชายา": 6654,
      "หน้าต่าง": 6655,
      "แล้วจึง": 6656,
      "โพน": 6657,
      "กฤษฎี": 6658,
      "view": 6659,
      "เอลิซาเบธ": 6660,
      "Kh": 6661,
      "ดอง": 6662,
      "อินทร์": 6663,
      "List": 6664,
      "ปฏิบัติหน้าที่": 6665,
      "coll": 6666,
      "แข็งแรง": 6667,
      "eum": 6668,
      "ประจำจังหวัด": 6669,
      "โชกุน": 6670,
      "GM": 6671,
      "PP": 6672,
      "โซ่": 6673,
      "เวียงจันทน์": 6674,
      "คฤ": 6675,
      "ยุทธศาสตร์": 6676,
      "par": 6677,
      "เสรีภาพ": 6678,
      "ไปหา": 6679,
      "ony": 6680,
      "คลอด": 6681,
      "พายุไต้ฝุ่น": 6682,
      "พลเรือ": 6683,
      "ลำบาก": 6684,
      "ดัล": 6685,
      "พระทัย": 6686,
      "แบบนี้": 6687,
      "หุบ": 6688,
      "ก่อตัว": 6689,
      "ฆาตกรรม": 6690,
      "แสดงว่า": 6691,
      "ษฎี": 6692,
      "เหย้า": 6693,
      "ฉลาด": 6694,
      "ความหวัง": 6695,
      "วิพากษ์": 6696,
      "สนะ": 6697,
      "คำแนะนำ": 6698,
      "นรก": 6699,
      "แกเรีย": 6700,
      "โน้": 6701,
      "บ้านเมือง": 6702,
      "บัลแกเรีย": 6703,
      "วิศวกร": 6704,
      "ตรงกลาง": 6705,
      "ดุษฎี": 6706,
      "ประติมากรรม": 6707,
      "นร": 6708,
      "โดยรอบ": 6709,
      "บาป": 6710,
      "sch": 6711,
      "เต็มไป": 6712,
      "Ear": 6713,
      "เฉิง": 6714,
      "โยน": 6715,
      "อารี": 6716,
      "ias": 6717,
      "med": 6718,
      "บำเพ็ญ": 6719,
      "พลิ": 6720,
      "เซี่ยง": 6721,
      "ตต์": 6722,
      "เก็น": 6723,
      "แบร": 6724,
      "อิเล็กตรอน": 6725,
      "แฟชั่น": 6726,
      "ต่อม": 6727,
      "ย่าง": 6728,
      "สำนักนายกรัฐมนตรี": 6729,
      "ครัวเรือน": 6730,
      "สกัด": 6731,
      "ผิดปกติ": 6732,
      "ชุมพร": 6733,
      "ike": 6734,
      "III": 6735,
      "ซีย์": 6736,
      "ชัยภูมิ": 6737,
      "ks": 6738,
      "เอเอฟ": 6739,
      "แอนเจลิส": 6740,
      "ลอสแอนเจลิส": 6741,
      "หิม": 6742,
      "บรมราช": 6743,
      "เบิร์น": 6744,
      "ชัง": 6745,
      "พิกัด": 6746,
      "ราชมงคล": 6747,
      "พันธุกรรม": 6748,
      "Sl": 6749,
      "นัง": 6750,
      "icle": 6751,
      "กุญ": 6752,
      "รูปทรง": 6753,
      "ความหนาแน่น": 6754,
      "ดำริ": 6755,
      "แก้ปัญหา": 6756,
      "ธนู": 6757,
      "ท้องฟ้า": 6758,
      "ชิ้นส่วน": 6759,
      "dom": 6760,
      "พิการ": 6761,
      "ลิ้น": 6762,
      "แฟนตา": 6763,
      "ดราก": 6764,
      "ตลอดกาล": 6765,
      "กิตติมศักดิ์": 6766,
      "แฟนตาซี": 6767,
      "รับเลือกตั้ง": 6768,
      "ใช้การ": 6769,
      "จำพวก": 6770,
      "South": 6771,
      "ลูกน้อง": 6772,
      "เข้าเรียน": 6773,
      "amb": 6774,
      "ตลาดหลักทรัพย์": 6775,
      "attle": 6776,
      "oman": 6777,
      "Je": 6778,
      "นครพนม": 6779,
      "มลายู": 6780,
      "Nov": 6781,
      "ทางเลือก": 6782,
      "นิล": 6783,
      "นบี": 6784,
      "เห็นชอบ": 6785,
      "กษ": 6786,
      "นักบวช": 6787,
      "หญิงสาว": 6788,
      "ปวง": 6789,
      "คลอ": 6790,
      "ก๊า": 6791,
      "Ap": 6792,
      "ไอ้": 6793,
      "ฟีฟ่า": 6794,
      "กางเขน": 6795,
      "ield": 6796,
      "ห่วง": 6797,
      "ชั้นมัธยมศึกษา": 6798,
      "กฤษฎีกา": 6799,
      "ละเม": 6800,
      "ปริยัติ": 6801,
      "Ter": 6802,
      "เชย": 6803,
      "เซ็นเตอร์": 6804,
      "บีซี": 6805,
      "รัตนราช": 6806,
      "Jan": 6807,
      "ระยอง": 6808,
      "เนปาล": 6809,
      "คาถา": 6810,
      "rem": 6811,
      "image": 6812,
      "หลีกเลี่ยง": 6813,
      "เพียงพอ": 6814,
      "วิท": 6815,
      "ขาน": 6816,
      "สมาชิกสภา": 6817,
      "เจ้าผู้ครอง": 6818,
      "มหาบัณฑิต": 6819,
      "ola": 6820,
      "ซุ้ม": 6821,
      "นวัต": 6822,
      "นวัตกรรม": 6823,
      "สำมะ": 6824,
      "ดำน้ำ": 6825,
      "House": 6826,
      "วรรค": 6827,
      "Red": 6828,
      "สมาพันธ์": 6829,
      "RE": 6830,
      "จี้": 6831,
      "อย่างไรก็ดี": 6832,
      "งับ": 6833,
      "เพรส": 6834,
      "ทางวิทยาศาสตร์": 6835,
      "ตัวเมีย": 6836,
      "ถัดไป": 6837,
      "เทีย": 6838,
      "เฟล": 6839,
      "ตุลาการ": 6840,
      "สิบสอง": 6841,
      "เคาน์": 6842,
      "Mal": 6843,
      "car": 6844,
      "พึง": 6845,
      "พระมารดา": 6846,
      "หมายความว่า": 6847,
      "พลี": 6848,
      "ยูนิ": 6849,
      "Licensed": 6850,
      "ept": 6851,
      "ฮก": 6852,
      "กำไร": 6853,
      "ชั้นสูง": 6854,
      "ทรรศน์": 6855,
      "เกน": 6856,
      "ดัชเชส": 6857,
      "สำมะโน": 6858,
      "ih": 6859,
      "นโป": 6860,
      "ควรจะ": 6861,
      "ก่อการร้าย": 6862,
      "นโปเลียน": 6863,
      "ประกาศนีย": 6864,
      "book": 6865,
      "ประกาศนียบัตร": 6866,
      "ตอนนี้": 6867,
      "หัวข้อ": 6868,
      "oth": 6869,
      "อ้อม": 6870,
      "ความลับ": 6871,
      "นาท": 6872,
      "เนื้อร้อง": 6873,
      "สปอร์ต": 6874,
      "บอด": 6875,
      "Instit": 6876,
      "ident": 6877,
      "เนื้อเยื่อ": 6878,
      "การปฏิบัติ": 6879,
      "นักท่องเที่ยว": 6880,
      "ral": 6881,
      "เผด็จ": 6882,
      "ทรัล": 6883,
      "เตียง": 6884,
      "ภูมิประเทศ": 6885,
      "Hy": 6886,
      "ได้รับอนุญาต": 6887,
      "คะแนนเสียง": 6888,
      "คริสต์ศักราช": 6889,
      "ange": 6890,
      "Eng": 6891,
      "การตัดสินใจ": 6892,
      "ael": 6893,
      "พระตำหนัก": 6894,
      "กัลยา": 6895,
      "เต็มไปด้วย": 6896,
      "หยวน": 6897,
      "อวอร์ด": 6898,
      "อุปถัมภ์": 6899,
      "Sport": 6900,
      "ห้องสมุด": 6901,
      "นอร์ท": 6902,
      "ผ่าตัด": 6903,
      "William": 6904,
      "ท่อน": 6905,
      "กระทรวงการต่างประเทศ": 6906,
      "Paul": 6907,
      "ลอก": 6908,
      "ผู้พูด": 6909,
      "erson": 6910,
      "ภูเขาไฟ": 6911,
      "ซิน": 6912,
      "บ์": 6913,
      "การเปรียญ": 6914,
      "กองหลัง": 6915,
      "Play": 6916,
      "บรรณาธิการ": 6917,
      "เป็นงาน": 6918,
      "ถ่วง": 6919,
      "อาชีว": 6920,
      "บันเทิงคดี": 6921,
      "มัค": 6922,
      "ปรีชา": 6923,
      "So": 6924,
      "length": 6925,
      "เอคัพ": 6926,
      "เอฟเอคัพ": 6927,
      "คงอยู่": 6928,
      "น่าจะเป็น": 6929,
      "ปราง": 6930,
      "กองเรือ": 6931,
      "ปลายทาง": 6932,
      "พระราชาคณะ": 6933,
      "ธิเบศร": 6934,
      "พอร์ต": 6935,
      "ลัพ": 6936,
      "ival": 6937,
      "Enter": 6938,
      "โตร": 6939,
      "ตัวตาย": 6940,
      "สระบุรี": 6941,
      "ศาลาการเปรียญ": 6942,
      "พอย": 6943,
      "ติดอันดับ": 6944,
      "ข้อเสนอ": 6945,
      "พจน": 6946,
      "มาลี": 6947,
      "eration": 6948,
      "iana": 6949,
      "ซื้อขาย": 6950,
      "โค้ช": 6951,
      "high": 6952,
      "ชด": 6953,
      "iver": 6954,
      "บริเตน": 6955,
      "กองบัญชาการ": 6956,
      "พัท": 6957,
      "ไอซ์": 6958,
      "เรนเจอร์": 6959,
      "งดง": 6960,
      "คณบดี": 6961,
      "จอร์เจีย": 6962,
      "Chin": 6963,
      "เสนาสนะ": 6964,
      "Football": 6965,
      "ัญชนะ": 6966,
      "Society": 6967,
      "มิลลิ": 6968,
      "งดงาม": 6969,
      "หยา": 6970,
      "เพราะว่า": 6971,
      "พยัญชนะ": 6972,
      "ขี": 6973,
      "สืบสวน": 6974,
      "เลื่อนชั้น": 6975,
      "สมุนไพร": 6976,
      "Ma": 6977,
      "ความสะดวก": 6978,
      "Assoc": 6979,
      "เรียกชื่อ": 6980,
      "เทศบาลนคร": 6981,
      "คณะวิทยาศาสตร์": 6982,
      "แบ็ก": 6983,
      "ปุระ": 6984,
      "พราหมณ์": 6985,
      "ที่รัก": 6986,
      "โดม": 6987,
      "สิ่งของ": 6988,
      "ถือหุ้น": 6989,
      "AirDate": 6990,
      "OriginalAirDate": 6991,
      "มัย": 6992,
      "โมน": 6993,
      "คุณธรรม": 6994,
      "CC": 6995,
      "เช็ก": 6996,
      "เบิก": 6997,
      "มหาวิทยาลัยรามคำแหง": 6998,
      "ชีวประวัติ": 6999,
      "ตัง": 7000,
      "เล็บ": 7001,
      "ผู้ว่าการ": 7002,
      "ทช์": 7003,
      "ภาพวาด": 7004,
      "ops": 7005,
      "leg": 7006,
      "Volume": 7007,
      "มีสิทธิ์": 7008,
      "็อกซ์": 7009,
      "นายแพทย์": 7010,
      "เหมา": 7011,
      "AA": 7012,
      "ส่วนกลาง": 7013,
      "เครื่องดื่ม": 7014,
      "พุทธศาสนา": 7015,
      "ฟรานซิส": 7016,
      "สกาย": 7017,
      "ฆ่าตัวตาย": 7018,
      "จื่อ": 7019,
      "ความตาย": 7020,
      "ได้รับบาดเจ็บ": 7021,
      "แขวน": 7022,
      "ชัญ": 7023,
      "สมาธิ": 7024,
      "สารคดี": 7025,
      "สิงโต": 7026,
      "ี๋ยน": 7027,
      "สอ": 7028,
      "Reg": 7029,
      "ผลักดัน": 7030,
      "การะ": 7031,
      "System": 7032,
      "ัฟ": 7033,
      "กระต": 7034,
      "istr": 7035,
      "Grand": 7036,
      "การประเมิน": 7037,
      "SP": 7038,
      "lead": 7039,
      "อาระเบีย": 7040,
      "แฟรง": 7041,
      "ฮีบรู": 7042,
      "Great": 7043,
      "ฮอน": 7044,
      "คนโต": 7045,
      "จนได้": 7046,
      "Mic": 7047,
      "Hol": 7048,
      "เผือก": 7049,
      "สูญพันธุ์": 7050,
      "แฮร์รี่": 7051,
      "เจียน": 7052,
      "ทรา": 7053,
      "แวง": 7054,
      "นักเตะ": 7055,
      "มิตรภาพ": 7056,
      "htm": 7057,
      "อยู่แล้ว": 7058,
      "สายตา": 7059,
      "ลิ่ง": 7060,
      "cycl": 7061,
      "อัจฉ": 7062,
      "เอม": 7063,
      "reg": 7064,
      "ป่าไม้": 7065,
      "การคำนวณ": 7066,
      "จุดประสงค์": 7067,
      "หยก": 7068,
      "รางวัลโนเบล": 7069,
      "เฉลิมฉลอง": 7070,
      "Tour": 7071,
      "วิภา": 7072,
      "ดิก": 7073,
      "MP": 7074,
      "Mer": 7075,
      "iro": 7076,
      "ซ้อม": 7077,
      "ซาอุ": 7078,
      "ograph": 7079,
      "ระวัง": 7080,
      "ไท่": 7081,
      "Project": 7082,
      "อดิ": 7083,
      "osa": 7084,
      "ปั่น": 7085,
      "เถา": 7086,
      "เจ้าผู้ครองนคร": 7087,
      "กลางคืน": 7088,
      "ournal": 7089,
      "Dev": 7090,
      "เรอ": 7091,
      "ita": 7092,
      "อเล็กซานเดอร์": 7093,
      "มอสโก": 7094,
      "ขวบ": 7095,
      "Sam": 7096,
      "พิชัย": 7097,
      "เบียร์": 7098,
      "ShortSummary": 7099,
      "ied": 7100,
      "โภช": 7101,
      "คนสำคัญ": 7102,
      "สีชมพู": 7103,
      "Hall": 7104,
      "มวม": 7105,
      "ในเวลาน": 7106,
      "Sur": 7107,
      "รีม": 7108,
      "ส่งออก": 7109,
      "Act": 7110,
      "คิดค้น": 7111,
      "เหนียว": 7112,
      "ทะลุ": 7113,
      "มรณ": 7114,
      "itten": 7115,
      "Of": 7116,
      "ส่วนผสม": 7117,
      "ซิตี้": 7118,
      "ลอบสังหาร": 7119,
      "ระงับ": 7120,
      "Princ": 7121,
      "ผนวก": 7122,
      "ลัพธ์": 7123,
      "พาท": 7124,
      "ฝึกหัด": 7125,
      "จล": 7126,
      "David": 7127,
      "Aug": 7128,
      "TS": 7129,
      "ร้านอาหาร": 7130,
      "มุง": 7131,
      "rel": 7132,
      "รูปปั้น": 7133,
      "มโน": 7134,
      "นิมิต": 7135,
      "เข้าด้วยกัน": 7136,
      "ศิลปกรรม": 7137,
      "Mil": 7138,
      "แทนที่จะ": 7139,
      "พยัค": 7140,
      "โรล": 7141,
      "ason": 7142,
      "สัตว์ประหลาด": 7143,
      "เพื่อนสนิท": 7144,
      "โอกะ": 7145,
      "ก๊าซ": 7146,
      "การทูต": 7147,
      "วันนี้": 7148,
      "ince": 7149,
      "บทเพลง": 7150,
      "แมนเชสเตอร์ยูไนเต็ด": 7151,
      "เท็จ": 7152,
      "สภาพแวดล้อม": 7153,
      "เคานต์": 7154,
      "ano": 7155,
      "มีด": 7156,
      "บีบ": 7157,
      "คุกคาม": 7158,
      "เมทัล": 7159,
      "ตัวเมือง": 7160,
      "ฮิตเลอร์": 7161,
      "ประภา": 7162,
      "จุก": 7163,
      "สังคมศาสตร์": 7164,
      "ury": 7165,
      "เชียร": 7166,
      "สมุทรสาคร": 7167,
      "rowspan": 7168,
      "จกรรม": 7169,
      "พุ่ง": 7170,
      "ปฏิรูป": 7171,
      "ร่ำ": 7172,
      "Int": 7173,
      "อนันต์": 7174,
      "Top": 7175,
      "agon": 7176,
      "ระเบียง": 7177,
      "ข่าน": 7178,
      "ตริ": 7179,
      "วันหนึ่ง": 7180,
      "ในกรณีที่": 7181,
      "การลงทุน": 7182,
      "ยับยั้ง": 7183,
      "mod": 7184,
      "ไธ": 7185,
      "แอก": 7186,
      "ตะวันตกเฉียงใต้": 7187,
      "ท่าม": 7188,
      "แย่": 7189,
      "ลำต้น": 7190,
      "Yo": 7191,
      "จ่า": 7192,
      "ปริญญาเอก": 7193,
      "แบรนด์": 7194,
      "ผลลัพธ์": 7195,
      "ศรีลังกา": 7196,
      "รองนายกรัฐมนตรี": 7197,
      "สังฆราช": 7198,
      "มุน": 7199,
      "ระดับชั้น": 7200,
      "ps": 7201,
      "pol": 7202,
      "พำ": 7203,
      "Jo": 7204,
      "ริช": 7205,
      "โกสลา": 7206,
      "ยูโกสลา": 7207,
      "ird": 7208,
      "ยูโกสลาเวีย": 7209,
      "Online": 7210,
      "Concert": 7211,
      "Rich": 7212,
      "กำแพงเพชร": 7213,
      "เลต": 7214,
      "Tok": 7215,
      "จากกัน": 7216,
      "ที่ทำงาน": 7217,
      "สุ่ม": 7218,
      "สำราญ": 7219,
      "เซ็นทรัล": 7220,
      "พายุหมุน": 7221,
      "FI": 7222,
      "มาลัย": 7223,
      "แบนด์": 7224,
      "คำตอบ": 7225,
      "นอม": 7226,
      "เวก": 7227,
      "ไหล่": 7228,
      "ถก": 7229,
      "วิลล์": 7230,
      "ภาพเขียน": 7231,
      "รศ": 7232,
      "สงครามโลกครั้งที่หนึ่ง": 7233,
      "ท่ามกลาง": 7234,
      "Net": 7235,
      "การบุก": 7236,
      "ald": 7237,
      "พระราชวงศ์": 7238,
      "ข่ม": 7239,
      "รอดชีวิต": 7240,
      "Park": 7241,
      "ซีก": 7242,
      "ใช้ได้": 7243,
      "แยกตัว": 7244,
      "ทุกครั้ง": 7245,
      "รษณ": 7246,
      "ผู้ประกาศข่าว": 7247,
      "ทึ": 7248,
      "ชันษา": 7249,
      "บังคับใช้": 7250,
      "ยฺ": 7251,
      "พลอ": 7252,
      "จนกว่า": 7253,
      "มุฮัม": 7254,
      "ไปรษณ": 7255,
      "ตระเวน": 7256,
      "อาร์ม": 7257,
      "นวน": 7258,
      "เอื้อ": 7259,
      "ตุ๊กตา": 7260,
      "ฮอก": 7261,
      "การกีฬา": 7262,
      "ขจร": 7263,
      "เยอร์": 7264,
      "รักษาการ": 7265,
      "ผง": 7266,
      "กระทรวงสาธารณสุข": 7267,
      "Ber": 7268,
      "ecom": 7269,
      "ตะวันตกเฉียงเหนือ": 7270,
      "สตอ": 7271,
      "แนวโน้ม": 7272,
      "ขั้นตอนวิธี": 7273,
      "Center": 7274,
      "จิ้ง": 7275,
      "แคป": 7276,
      "ฮาร์ด": 7277,
      "ถอนตัว": 7278,
      "จอก": 7279,
      "โจน": 7280,
      "สุวรรณภูมิ": 7281,
      "ธม": 7282,
      "unc": 7283,
      "ada": 7284,
      "เกตบอล": 7285,
      "บาสเกตบอล": 7286,
      "ric": 7287,
      "สติก": 7288,
      "จีเรีย": 7289,
      "PW": 7290,
      "ชำนาญ": 7291,
      "ดุษฎีบัณฑิต": 7292,
      "พำนัก": 7293,
      "ป๊": 7294,
      "แจ็ค": 7295,
      "ham": 7296,
      "ไซม์": 7297,
      "พ่อค้า": 7298,
      "ows": 7299,
      "ชาด": 7300,
      "ความฝัน": 7301,
      "สถานที่สำคัญ": 7302,
      "นิทรรศ": 7303,
      "รวมตัวกัน": 7304,
      "นิทรรศการ": 7305,
      "ูปถัมภ์": 7306,
      "Pat": 7307,
      "ij": 7308,
      "ระดม": 7309,
      "angu": 7310,
      "อัยการ": 7311,
      "OS": 7312,
      "รีบ": 7313,
      "Thai": 7314,
      "da": 7315,
      "คณะนิติศาสตร์": 7316,
      "อาร์เซน": 7317,
      "มเบิร์ก": 7318,
      "สาป": 7319,
      "สงเคราะห์": 7320,
      "Directed": 7321,
      "ละเมิด": 7322,
      "พัทลุง": 7323,
      "โรงเรียนมัธยม": 7324,
      "อาร์เซนอล": 7325,
      "ใช้ประโยชน์": 7326,
      "aint": 7327,
      "ผลประโยชน์": 7328,
      "แนวร่วม": 7329,
      "ชนก": 7330,
      "ลึกลับ": 7331,
      "nov": 7332,
      "บิต": 7333,
      "การจับสลาก": 7334,
      "กัญ": 7335,
      "ชชา": 7336,
      "ื้อย": 7337,
      "มาสู่": 7338,
      "พระบาทสมเด็จพระมงกุฎ": 7339,
      "พระบาทสมเด็จพระมงกุฎเกล้าเจ้าอยู่หัว": 7340,
      "การกำกับ": 7341,
      "เทย์": 7342,
      "เบญจ": 7343,
      "แฟร์": 7344,
      "กิล": 7345,
      "ซ่ง": 7346,
      "พระสนม": 7347,
      "Museum": 7348,
      "ble": 7349,
      "แท็ก": 7350,
      "North": 7351,
      "เป็นพิเศษ": 7352,
      "รองประธาน": 7353,
      "Film": 7354,
      "atic": 7355,
      "ในขณะเดียวกัน": 7356,
      "อาชีวศึกษา": 7357,
      "DirectedBy": 7358,
      "Tom": 7359,
      "ทริ": 7360,
      "สับสน": 7361,
      "เฟน": 7362,
      "wor": 7363,
      "ผู้รับ": 7364,
      "ister": 7365,
      "มาร์ติน": 7366,
      "Translit": 7367,
      "met": 7368,
      "ลีลา": 7369,
      "ปฏิบัติงาน": 7370,
      "โคลัม": 7371,
      "Science": 7372,
      "เป็นเพื่อน": 7373,
      "ข้าหลวง": 7374,
      "จมูก": 7375,
      "osh": 7376,
      "กาแฟ": 7377,
      "ivision": 7378,
      "พิสัย": 7379,
      "จำคุก": 7380,
      "แต่ละคน": 7381,
      "Mor": 7382,
      "ติ์": 7383,
      "Ox": 7384,
      "น้ำท่วม": 7385,
      "เทพรัตนราช": 7386,
      "ศาลเจ้า": 7387,
      "สมเด็จพระเทพรัตนราช": 7388,
      "สมเด็จพระเทพรัตนราชสุดา": 7389,
      "สพ": 7390,
      "German": 7391,
      "ิดส์": 7392,
      "ออต": 7393,
      "เวต": 7394,
      "ยาเสพติด": 7395,
      "พลับ": 7396,
      "ไนท์": 7397,
      "ประสานงาน": 7398,
      "ปกรณ์": 7399,
      "แจง": 7400,
      "โสภณ": 7401,
      "NE": 7402,
      "ฟฟ์": 7403,
      "รถโดยสาร": 7404,
      "ฝ่ายสัมพันธมิตร": 7405,
      "ออกซิเจน": 7406,
      "ในแง่": 7407,
      "ของเหลว": 7408,
      "คาว": 7409,
      "เปียโน": 7410,
      "TranslitTitle": 7411,
      "เริง": 7412,
      "UK": 7413,
      "ยิบ": 7414,
      "event": 7415,
      "low": 7416,
      "หมี": 7417,
      "โครเอเชีย": 7418,
      "Ann": 7419,
      "มุกดา": 7420,
      "ด้วยเหตุนี้": 7421,
      "หม่า": 7422,
      "Bur": 7423,
      "คอร์ด": 7424,
      "ไถ": 7425,
      "ราชบัณฑิต": 7426,
      "เฟส": 7427,
      "อัสสัมชัญ": 7428,
      "Rem": 7429,
      "นายร้อย": 7430,
      "เสียด": 7431,
      "เชียร์": 7432,
      "times": 7433,
      "เรสต์": 7434,
      "พีเดีย": 7435,
      "วิกิพีเดีย": 7436,
      "เบอ": 7437,
      "แล้ง": 7438,
      "ภูมิใจ": 7439,
      "คิดถึง": 7440,
      "ปิ่น": 7441,
      "เปญ": 7442,
      "ru": 7443,
      "ดาม": 7444,
      "เห็นด้วย": 7445,
      "ords": 7446,
      "Club": 7447,
      "พัฒน": 7448,
      "สถานีวิทยุโทรทัศน์": 7449,
      "ift": 7450,
      "นักโทษ": 7451,
      "แก๊ง": 7452,
      "Po": 7453,
      "ทางวิชาการ": 7454,
      "จรวด": 7455,
      "ization": 7456,
      "ฉะนั้น": 7457,
      "กระทรวงการคลัง": 7458,
      "กอล์ฟ": 7459,
      "จ้าว": 7460,
      "อย่างเช่น": 7461,
      "เครื่องจักร": 7462,
      "คส์": 7463,
      "ฝึกฝน": 7464,
      "ริกซ์": 7465,
      "Cy": 7466,
      "จอร์แดน": 7467,
      "เซาท์": 7468,
      "ก้น": 7469,
      "ฐิ": 7470,
      "ถึงแม้": 7471,
      "DE": 7472,
      "จัดสรร": 7473,
      "ทวีปแอฟริกา": 7474,
      "ยกระ": 7475,
      "พบกัน": 7476,
      "collaps": 7477,
      "ยกระดับ": 7478,
      "ชว": 7479,
      "อิสร": 7480,
      "rown": 7481,
      "เจริญเติบโต": 7482,
      "Bang": 7483,
      "bum": 7484,
      "มูน": 7485,
      "ions": 7486,
      "เกียร์": 7487,
      "order": 7488,
      "caption": 7489,
      "จิร": 7490,
      "อู๋": 7491,
      "มัธยมศึกษาตอนปลาย": 7492,
      "ปราย": 7493,
      "โรงละคร": 7494,
      "ในเวลานั้น": 7495,
      "ปกคลุม": 7496,
      "สเตเดียม": 7497,
      "ก้อง": 7498,
      "ยภาพ": 7499,
      "ตอเรีย": 7500,
      "Series": 7501,
      "Asia": 7502,
      "มุ่งหน้า": 7503,
      "ชาต": 7504,
      "pos": 7505,
      "Kar": 7506,
      "กระนั้น": 7507,
      "แบ่งแยก": 7508,
      "ประกาศใช้": 7509,
      "ขยายตัว": 7510,
      "Heavy": 7511,
      "โมเดล": 7512,
      "มิลลิเมตร": 7513,
      "สมดุล": 7514,
      "ตัวจริง": 7515,
      "พิพาท": 7516,
      "เข้มข้น": 7517,
      "Mart": 7518,
      "ฉี": 7519,
      "้ก": 7520,
      "สัจ": 7521,
      "ความเป็นจริง": 7522,
      "ขง": 7523,
      "กรณ": 7524,
      "ีกรรม": 7525,
      "ca": 7526,
      "profile": 7527,
      "เข้": 7528,
      "ความสงบ": 7529,
      "ระดับโลก": 7530,
      "์ฟ": 7531,
      "ทำอาหาร": 7532,
      "ชายหาด": 7533,
      "ทันสมัย": 7534,
      "กิง": 7535,
      "สตา": 7536,
      "Up": 7537,
      "berg": 7538,
      "สถานที่ท่องเที่ยว": 7539,
      "ประทับใจ": 7540,
      "สมณศักดิ์": 7541,
      "duction": 7542,
      "population": 7543,
      "ทางทะเล": 7544,
      "สีสัน": 7545,
      "ดึงดูด": 7546,
      "Europe": 7547,
      "burg": 7548,
      "กองทหาร": 7549,
      "วิกตอเรีย": 7550,
      "ประจำวัน": 7551,
      "RO": 7552,
      "แฟล": 7553,
      "นค": 7554,
      "กราบ": 7555,
      "ง่อ": 7556,
      "ใบหน้า": 7557,
      "อัค": 7558,
      "ตท": 7559,
      "พลู": 7560,
      "เอนไซม์": 7561,
      "เชือก": 7562,
      "รากฐาน": 7563,
      "เฮาส์": 7564,
      "เฮีย": 7565,
      "overn": 7566,
      "เสนาธิการ": 7567,
      "แบร์ค": 7568,
      "ple": 7569,
      "เป่า": 7570,
      "มือถือ": 7571,
      "กลืน": 7572,
      "บทภาพยนตร์": 7573,
      "นักสืบ": 7574,
      "gram": 7575,
      "Cap": 7576,
      "รณรงค์": 7577,
      "ลเลอร์": 7578,
      "การฟื้นฟู": 7579,
      "ชื่อจริง": 7580,
      "TA": 7581,
      "ยุปราคา": 7582,
      "จัดหา": 7583,
      "สุริยุปราคา": 7584,
      "วิพากษ์วิจารณ์": 7585,
      "ไดร": 7586,
      "รอยัล": 7587,
      "พาร์ก": 7588,
      "กลยุทธ์": 7589,
      "ทีมงาน": 7590,
      "สื่อมวลชน": 7591,
      "หุบเขา": 7592,
      "ref": 7593,
      "นิกซ์": 7594,
      "sign": 7595,
      "เซ็ต": 7596,
      "ริบ": 7597,
      "เต้า": 7598,
      "ไพ่": 7599,
      "iki": 7600,
      "พจนานุกรม": 7601,
      "นำเข้า": 7602,
      "อุปสรร": 7603,
      "อุปสรรค": 7604,
      "do": 7605,
      "ร็อง": 7606,
      "แกม": 7607,
      "พลตรี": 7608,
      "ภค": 7609,
      "ives": 7610,
      "พืชดอก": 7611,
      "NativeTitleLang": 7612,
      "NativeTitleLangCode": 7613,
      "ราชกิจ": 7614,
      "ani": 7615,
      "ature": 7616,
      "บุญธรรม": 7617,
      "เลสไตน์": 7618,
      "เวเน": 7619,
      "สูท": 7620,
      "ปาเลสไตน์": 7621,
      "ney": 7622,
      "สท": 7623,
      "ฟีลด์": 7624,
      "ever": 7625,
      "แสวงหา": 7626,
      "ห่อ": 7627,
      "ซิ่ง": 7628,
      "มาตย์": 7629,
      "ความจุ": 7630,
      "ถูกจับ": 7631,
      "ทก": 7632,
      "ข้อหา": 7633,
      "map": 7634,
      "งด": 7635,
      "สีม่วง": 7636,
      "ปกครองส่วนท้องถิ่น": 7637,
      "องค์กรปกครองส่วนท้องถิ่น": 7638,
      "แกะสลัก": 7639,
      "ชาลส์": 7640,
      "คณา": 7641,
      "เมย์": 7642,
      "ปากกา": 7643,
      "เรต": 7644,
      "ทางทิศใต้": 7645,
      "ดราก้อน": 7646,
      "ร์ก": 7647,
      "เทศมนตรี": 7648,
      "ครั้งก่อน": 7649,
      "ปราจีน": 7650,
      "หยัด": 7651,
      "อกซ์": 7652,
      "โดยมาก": 7653,
      "ภาคี": 7654,
      "เนียล": 7655,
      "ควาย": 7656,
      "นาว": 7657,
      "สหรัฐฯ": 7658,
      "สโล": 7659,
      "เสร็จสิ้น": 7660,
      "ไนน์": 7661,
      "ไฮ้": 7662,
      "วงศา": 7663,
      "พุทธศตวรรษ": 7664,
      "Mem": 7665,
      "กิติ์": 7666,
      "เครื่องดนตรี": 7667,
      "วัลย์": 7668,
      "obox": 7669,
      "หีบ": 7670,
      "อ่อนแอ": 7671,
      "Association": 7672,
      "ป้า": 7673,
      "บริหารงาน": 7674,
      "ใดๆ": 7675,
      "กุญแจ": 7676,
      "ซอร์": 7677,
      "กรุงรัตนโกสินทร์": 7678,
      "กราฟิก": 7679,
      "ทีวีสี": 7680,
      "โสม": 7681,
      "เดร": 7682,
      "มิสเตอร์": 7683,
      "ระดับชาติ": 7684,
      "นีโอ": 7685,
      "Journal": 7686,
      "ones": 7687,
      "เศรษฐี": 7688,
      "แน่ชัด": 7689,
      "หิมะ": 7690,
      "ที่แล้ว": 7691,
      "แว่น": 7692,
      "ya": 7693,
      "ทนา": 7694,
      "ในทาง": 7695,
      "วิมล": 7696,
      "idth": 7697,
      "ซ็อน": 7698,
      "แขนง": 7699,
      "Fre": 7700,
      "San": 7701,
      "back": 7702,
      "po": 7703,
      "เคิดส์": 7704,
      "พิธีกรรม": 7705,
      "ague": 7706,
      "yes": 7707,
      "ญ์": 7708,
      "ี๊": 7709,
      "ร้า": 7710,
      "url": 7711,
      "Night": 7712,
      "ตัส": 7713,
      "ผู้ว่าราชการจังหวัด": 7714,
      "collapsible": 7715,
      "เสี้ยว": 7716,
      "เนต": 7717,
      "States": 7718,
      "tainment": 7719,
      "เปี้ยน": 7720,
      "เป็นช่วง": 7721,
      "ala": 7722,
      "press": 7723,
      "ผิง": 7724,
      "บริดจ์": 7725,
      "บัก": 7726,
      "ปิง": 7727,
      "เป็นรอง": 7728,
      "็ล": 7729,
      "เงียบ": 7730,
      "ถกเถียง": 7731,
      "เซมเบิร์ก": 7732,
      "ลักเซมเบิร์ก": 7733,
      "pe": 7734,
      "เนก": 7735,
      "ugh": 7736,
      "อึน": 7737,
      "ตรัส": 7738,
      "ละติน": 7739,
      "แบต": 7740,
      "olution": 7741,
      "Pres": 7742,
      "ขัดขวาง": 7743,
      "พลตำรวจ": 7744,
      "ภายในประเทศ": 7745,
      "เกล็ด": 7746,
      "Ant": 7747,
      "AM": 7748,
      "เอลา": 7749,
      "โตมัน": 7750,
      "ious": 7751,
      "ออตโตมัน": 7752,
      "cyclop": 7753,
      "ปลง": 7754,
      "กระจายเสียง": 7755,
      "เสน่ห์": 7756,
      "ตัวแปร": 7757,
      "ชาวนา": 7758,
      "ข้างต้น": 7759,
      "แขกรับเชิญ": 7760,
      "Sa": 7761,
      "กาม": 7762,
      "แม่นยำ": 7763,
      "วิง": 7764,
      "บ้านพัก": 7765,
      "เขตแดน": 7766,
      "กลับคืน": 7767,
      "ยูโรปา": 7768,
      "lo": 7769,
      "ฉา": 7770,
      "เป็นโรค": 7771,
      "เดชม": 7772,
      "สามเณร": 7773,
      "ศักยภาพ": 7774,
      "อดุลยเดชม": 7775,
      "อดุลยเดชมหาราช": 7776,
      "ทุจริต": 7777,
      "คัดค้าน": 7778,
      "ไจ": 7779,
      "ฟวี่": 7780,
      "จารุ": 7781,
      "เจ้าจอมมารดา": 7782,
      "พก": 7783,
      "mar": 7784,
      "พิจิตร": 7785,
      "ima": 7786,
      "นับแต่": 7787,
      "ดัชนี": 7788,
      "นิเทศศาสตร์": 7789,
      "ผิ": 7790,
      "โทน": 7791,
      "ทำสงคราม": 7792,
      "วต": 7793,
      "สท์": 7794,
      "Pop": 7795,
      "หนาม": 7796,
      "เชลซี": 7797,
      "uman": 7798,
      "wa": 7799,
      "Written": 7800,
      "มหาภูมิพลอดุลยเดชมหาราช": 7801,
      "มีระบบ": 7802,
      "สีเทา": 7803,
      "กรมพระยา": 7804,
      "สยอง": 7805,
      "ides": 7806,
      "วาดภาพ": 7807,
      "Michael": 7808,
      "ถ่ายทอดสด": 7809,
      "AN": 7810,
      "ชุก": 7811,
      "ปง": 7812,
      "สระแก้ว": 7813,
      "มนุษยชน": 7814,
      "ตอนนั้น": 7815,
      "IM": 7816,
      "รองเท้า": 7817,
      "บรมนาถ": 7818,
      "พระบาทสมเด็จพระมหาภูมิพลอดุลยเดชมหาราช": 7819,
      "บรมนาถบพิตร": 7820,
      "Rad": 7821,
      "ze": 7822,
      "เกรด": 7823,
      "ชิลี": 7824,
      "เจิ้ง": 7825,
      "ียส": 7826,
      "ภาษาละ": 7827,
      "ภาษาละติน": 7828,
      "กดดัน": 7829,
      "สมเด็จพระเทพรัตนราชสุดาฯ": 7830,
      "FC": 7831,
      "ดึก": 7832,
      "สรี": 7833,
      "ียณ": 7834,
      "ประจุ": 7835,
      "ลิตร": 7836,
      "ลำไส้": 7837,
      "version": 7838,
      "Group": 7839,
      "ini": 7840,
      "ปล้น": 7841,
      "ความคิดเห็น": 7842,
      "EN": 7843,
      "van": 7844,
      "เทควัน": 7845,
      "เดา": 7846,
      "uck": 7847,
      "สิริกิติ์": 7848,
      "เทควันโด": 7849,
      "Sil": 7850,
      "เช่นนั้น": 7851,
      "ทางราชการ": 7852,
      "ทั้งที่": 7853,
      "Mad": 7854,
      "ดร์": 7855,
      "พลิก": 7856,
      "ศาสนสถาน": 7857,
      "cent": 7858,
      "สิทธิมนุษยชน": 7859,
      "เลื้อย": 7860,
      "วิโร": 7861,
      "atch": 7862,
      "มุฮัมมัด": 7863,
      "ตกรอบ": 7864,
      "การถ่ายภาพ": 7865,
      "เกลียด": 7866,
      "First": 7867,
      "ชาร์ล": 7868,
      "แฝง": 7869,
      "Infobox": 7870,
      "Out": 7871,
      "ครอส": 7872,
      "DS": 7873,
      "เกษียณ": 7874,
      "EC": 7875,
      "พยัคฆ์": 7876,
      "result": 7877,
      "เซี่ยงไฮ้": 7878,
      "James": 7879,
      "พัล": 7880,
      "๊บ": 7881,
      "นับว่า": 7882,
      "football": 7883,
      "เน็ง": 7884,
      "กรมศิลปากร": 7885,
      "เป็นไปตาม": 7886,
      "ลงสมัครรับเลือกตั้ง": 7887,
      "ปราช": 7888,
      "รวมทั้งหมด": 7889,
      "เพชรบูรณ์": 7890,
      "ราห์": 7891,
      "ชาตินิยม": 7892,
      "bridge": 7893,
      "Not": 7894,
      "Val": 7895,
      "publ": 7896,
      "ทนาย": 7897,
      "ัศ": 7898,
      "ดาราจักร": 7899,
      "แฟรน": 7900,
      "Del": 7901,
      "ที่ระลึก": 7902,
      "คนรัก": 7903,
      "งานการ": 7904,
      "ห้องปฏิบัติการ": 7905,
      "ซัก": 7906,
      "เลียม": 7907,
      "มิยา": 7908,
      "ขุ": 7909,
      "พ้อง": 7910,
      "วิไล": 7911,
      "็ฟ": 7912,
      "ทรงกลม": 7913,
      "เมนท์": 7914,
      "วิโรฒ": 7915,
      "น็อก": 7916,
      "ประมง": 7917,
      "cor": 7918,
      "นท์": 7919,
      "เสียใจ": 7920,
      "คงที่": 7921,
      "music": 7922,
      "บิว": 7923,
      "ินทร์": 7924,
      "วันหยุด": 7925,
      "อรี่": 7926,
      "วัชร": 7927,
      "เพียงแต่": 7928,
      "ไหลผ่าน": 7929,
      "Austr": 7930,
      "็กซัส": 7931,
      "เดิมที": 7932,
      "ราชาภิเษก": 7933,
      "พระบรมราชโองการ": 7934,
      "ปเตอร์": 7935,
      "เนร": 7936,
      "Robert": 7937,
      "จฺ": 7938,
      "ล่อ": 7939,
      "Bel": 7940,
      "เป็นอัน": 7941,
      "โกส": 7942,
      "ทางการเงิน": 7943,
      "ศูนย์การค้า": 7944,
      "ชักชวน": 7945,
      "PS": 7946,
      "เกรง": 7947,
      "เอิร์ล": 7948,
      "ธรรมยุ": 7949,
      "ลำน้ำ": 7950,
      "ฤดูใบไม้": 7951,
      "PC": 7952,
      "เฌ": 7953,
      "รสชาติ": 7954,
      "Color": 7955,
      "Institute": 7956,
      "โนเสาร์": 7957,
      "ไดโนเสาร์": 7958,
      "Heart": 7959,
      "คลาย": 7960,
      "aka": 7961,
      "ram": 7962,
      "ูไร": 7963,
      "ผู้พิพากษา": 7964,
      "เจี้ยน": 7965,
      "ซามูไร": 7966,
      "ภัส": 7967,
      "ไปรษณีย์": 7968,
      "คำวิจารณ์": 7969,
      "ผิดพลาด": 7970,
      "Show": 7971,
      "หย่า": 7972,
      "ชอ": 7973,
      "ดยุค": 7974,
      "ฟิว": 7975,
      "สั่น": 7976,
      "เซ็ก": 7977,
      "พบเห็น": 7978,
      "หน้าตา": 7979,
      "รุ่นใหม่": 7980,
      "ซอฟท์": 7981,
      "ปราจีนบุรี": 7982,
      "เวลล์": 7983,
      "สำโรง": 7984,
      "แฉ": 7985,
      "เลี้ยว": 7986,
      "ทดแทน": 7987,
      "ตบ": 7988,
      "ยโส": 7989,
      "ฮัล": 7990,
      "คำพูด": 7991,
      "จับตัว": 7992,
      "ว่าน": 7993,
      "มหาศาล": 7994,
      "FF": 7995,
      "นายกเทศมนตรี": 7996,
      "กิม": 7997,
      "iction": 7998,
      "ออกไซด์": 7999,
      "China": 8000,
      "โขน": 8001,
      "บ้านเรือน": 8002,
      "เจียว": 8003,
      "Mark": 8004,
      "cite": 8005,
      "var": 8006,
      "State": 8007,
      "ness": 8008,
      "ตั๋ง": 8009,
      "Heavyweight": 8010,
      "ele": 8011,
      "มิลาน": 8012,
      "พิบัติ": 8013,
      "หรา": 8014,
      "ไมค์": 8015,
      "กันว่า": 8016,
      "เรียกกันว่า": 8017,
      "กาญจนา": 8018,
      "กระเป": 8019,
      "ดินา": 8020,
      "West": 8021,
      "mm": 8022,
      "ครัฐ": 8023,
      "ปล่อยตัว": 8024,
      "Dream": 8025,
      "พิศ": 8026,
      "ทรวิโรฒ": 8027,
      "แหล่งน้ำ": 8028,
      "awa": 8029,
      "ศรีนครินทรวิโรฒ": 8030,
      "บาตร": 8031,
      "Sim": 8032,
      "วงแหวน": 8033,
      "ระบาย": 8034,
      "ยอดเขา": 8035,
      "ร้ายแรง": 8036,
      "กงสุล": 8037,
      "record": 8038,
      "น่าร": 8039,
      "พฤกษ์": 8040,
      "อัพ": 8041,
      "เจกต์": 8042,
      "omy": 8043,
      "idd": 8044,
      "เนื่องด้วย": 8045,
      "พันเอก": 8046,
      "feat": 8047,
      "แต่กลับ": 8048,
      "ไฮโดรเจน": 8049,
      "นุช": 8050,
      "สยามบรมราช": 8051,
      "มนุษยศาสตร์": 8052,
      "สยามบรมราชกุมารี": 8053,
      "Bas": 8054,
      "ทอร์": 8055,
      "ฐานทัพ": 8056,
      "ปรับเปลี่ยน": 8057,
      "หันมา": 8058,
      "ที่ทาง": 8059,
      "ดีเอ็น": 8060,
      "elop": 8061,
      "ดีเอ็นเอ": 8062,
      "Wind": 8063,
      "เกิดเหตุ": 8064,
      "ดังที่": 8065,
      "สัตย์": 8066,
      "amily": 8067,
      "บรรจบ": 8068,
      "inf": 8069,
      "โยธา": 8070,
      "เผชิญหน้า": 8071,
      "วิเชียร": 8072,
      "พอที่จะ": 8073,
      "cle": 8074,
      "WrittenBy": 8075,
      "ปัว": 8076,
      "นครหลวง": 8077,
      "พอยท์": 8078,
      "Av": 8079,
      "Big": 8080,
      "แซ็ง": 8081,
      "มุ่งเน้น": 8082,
      "วงศ": 8083,
      "แรงดัน": 8084,
      "Russ": 8085,
      "adem": 8086,
      "ไต่": 8087,
      "อารยธรรม": 8088,
      "Entertainment": 8089,
      "log": 8090,
      "แอด": 8091,
      "แพร่กระจาย": 8092,
      "mer": 8093,
      "ช่องแคบ": 8094,
      "น่าสนใจ": 8095,
      "ense": 8096,
      "มุนี": 8097,
      "การอนุรักษ์": 8098,
      "โรแมน": 8099,
      "เริ่มแรก": 8100,
      "กรุงธนบุรี": 8101,
      "Ver": 8102,
      "สังเกตการณ์": 8103,
      "Sun": 8104,
      "ฟุตซอล": 8105,
      "ภาระ": 8106,
      "Aux": 8107,
      "Sal": 8108,
      "sing": 8109,
      "ชั้นนำ": 8110,
      "ประจำทาง": 8111,
      "Da": 8112,
      "แคระ": 8113,
      "Chap": 8114,
      "พระอาราม": 8115,
      "ต้านทาน": 8116,
      "ถ่าน": 8117,
      "มพรรษา": 8118,
      "เค็ม": 8119,
      "พระชนมพรรษา": 8120,
      "flag": 8121,
      "บอง": 8122,
      "เคีย": 8123,
      "ฮอลล์": 8124,
      "สุริยะ": 8125,
      "ภคินี": 8126,
      "มหาวิทยาลัยศรีนครินทรวิโรฒ": 8127,
      "enth": 8128,
      "เกษตรกร": 8129,
      "Dan": 8130,
      "อนุกรม": 8131,
      "เบย์": 8132,
      "คณะรัฐศาสตร์": 8133,
      "Ir": 8134,
      "นักข่าว": 8135,
      "ปลุก": 8136,
      "กู่": 8137,
      "เปน": 8138,
      "นิทาน": 8139,
      "ody": 8140,
      "วรรณคดี": 8141,
      "ฝาผนัง": 8142,
      "เพดาน": 8143,
      "ni": 8144,
      "งุ": 8145,
      "มปช": 8146,
      "เอ็ส": 8147,
      "เทพี": 8148,
      "ตติ้ง": 8149,
      "ช็อง": 8150,
      "ธนะ": 8151,
      "ดวงตา": 8152,
      "ไบเบิล": 8153,
      "ฐานข้อมูล": 8154,
      "เคลือบ": 8155,
      "เมตตา": 8156,
      "dis": 8157,
      "สันต์": 8158,
      "พูดถึง": 8159,
      "Ben": 8160,
      "GA": 8161,
      "ophy": 8162,
      "มหาดเล็ก": 8163,
      "set": 8164,
      "yle": 8165,
      "กระช": 8166,
      "uth": 8167,
      "ประจำชาติ": 8168,
      "สาธารณชน": 8169,
      "มิวนิก": 8170,
      "เลือดแดง": 8171,
      "แต้ม": 8172,
      "แรกเริ่ม": 8173,
      "โค่น": 8174,
      "Apr": 8175,
      "ฉาง": 8176,
      "สุม": 8177,
      "เดินเรือ": 8178,
      "ต้อนรับ": 8179,
      "Thom": 8180,
      "เป็นลำดับ": 8181,
      "ประกอบการ": 8182,
      "คำสอน": 8183,
      "ula": 8184,
      "สัตว": 8185,
      "อบอุ่น": 8186,
      "ี้ยง": 8187,
      "ปริยัติธรรม": 8188,
      "เซียส": 8189,
      "แชร์": 8190,
      "ลิกซ์": 8191,
      "part": 8192,
      "เกียรติคุณ": 8193,
      "สมร": 8194,
      "TO": 8195,
      "จ็อง": 8196,
      "สมบท": 8197,
      "บริวาร": 8198,
      "ูลย์": 8199,
      "แร็ป": 8200,
      "พร่อง": 8201,
      "อุปสมบท": 8202,
      "แผ่นดินใหญ่": 8203,
      "ฉันท์": 8204,
      "Battle": 8205,
      "ล่อง": 8206,
      "หนุน": 8207,
      "น้ำตา": 8208,
      "จฉา": 8209,
      "สาวะ": 8210,
      "acy": 8211,
      "Story": 8212,
      "Nav": 8213,
      "rad": 8214,
      "สีส้ม": 8215,
      "บางแห่ง": 8216,
      "ระบบประสาท": 8217,
      "link": 8218,
      "ศักดินา": 8219,
      "ube": 8220,
      "li": 8221,
      "เบิร์ด": 8222,
      "ปี้": 8223,
      "สังข์": 8224,
      "lor": 8225,
      "ื้อน": 8226,
      "ชิพ": 8227,
      "urr": 8228,
      "WBC": 8229,
      "ป่วน": 8230,
      "ines": 8231,
      "ลูกเรือ": 8232,
      "เทียบเท่า": 8233,
      "cer": 8234,
      "ฟาน": 8235,
      "สค": 8236,
      "พลัน": 8237,
      "าม่า": 8238,
      "ars": 8239,
      "บด": 8240,
      "ถือได้": 8241,
      "ปากน้ำ": 8242,
      "ซ่อมแซม": 8243,
      "ชาลา": 8244,
      "EP": 8245,
      "สนทนา": 8246,
      "พัทยา": 8247,
      "จุดเด่น": 8248,
      "อัตราส่วน": 8249,
      "สกฤต": 8250,
      "สโตน": 8251,
      "ปราศ": 8252,
      "ดนตรีไทย": 8253,
      "ตราด": 8254,
      "งก์": 8255,
      "Chinese": 8256,
      "สาวก": 8257,
      "สันสกฤต": 8258,
      "เป็ด": 8259,
      "บุ๊ก": 8260,
      "ctr": 8261,
      "แม็ค": 8262,
      "แอนน์": 8263,
      "ภัยพิบัติ": 8264,
      "ko": 8265,
      "ทมิ": 8266,
      "เจได": 8267,
      "ยะลา": 8268,
      "ระบบปฏิบัติการ": 8269,
      "DC": 8270,
      "Ob": 8271,
      "Que": 8272,
      "onic": 8273,
      "รบกวน": 8274,
      "itation": 8275,
      "ยินดี": 8276,
      "ทมิฬ": 8277,
      "ที่ว่าการ": 8278,
      "คมน": 8279,
      "ใบอนุญาต": 8280,
      "แจ็กสัน": 8281,
      "เอิร์": 8282,
      "arr": 8283,
      "นเด": 8284,
      "รับหน้าที่": 8285,
      "อาบ": 8286,
      "บอกซ์": 8287,
      "งคล": 8288,
      "ฟอส": 8289,
      "มากเกินไป": 8290,
      "มีส่วนร่วม": 8291,
      "วุ่นวาย": 8292,
      "Law": 8293,
      "ตีความ": 8294,
      "บาทหลวง": 8295,
      "ควบคู่": 8296,
      "อิสรภาพ": 8297,
      "Alex": 8298,
      "กมล": 8299,
      "ชั้นใน": 8300,
      "True": 8301,
      "ปัสสาวะ": 8302,
      "สมรรถ": 8303,
      "เลค": 8304,
      "อนึ่ง": 8305,
      "พบูลย์": 8306,
      "uct": 8307,
      "ิ่ง": 8308,
      "ไพบูลย์": 8309,
      "เลียง": 8310,
      "อุดมการณ์": 8311,
      "ตะกอน": 8312,
      "width": 8313,
      "ฟี่": 8314,
      "ปรับตัว": 8315,
      "ปานกลาง": 8316,
      "ทำพิธี": 8317,
      "มายา": 8318,
      "รพ": 8319,
      "ราชวรวิหาร": 8320,
      "ตัวนำ": 8321,
      "กระเบื้อง": 8322,
      "สหพันธรัฐ": 8323,
      "สืบเชื้อสาย": 8324,
      "ตรงกันข้าม": 8325,
      "ันดร": 8326,
      "วงโคจร": 8327,
      "THE": 8328,
      "ตัวเอก": 8329,
      "ส่งสัญญาณ": 8330,
      "องคร": 8331,
      "นางเอก": 8332,
      "องครักษ์": 8333,
      "จักรี": 8334,
      "del": 8335,
      "มหาศักราช": 8336,
      "รุ้ง": 8337,
      "แซ็ก": 8338,
      "ความสุข": 8339,
      "ander": 8340,
      "การคมนาคม": 8341,
      "พลโท": 8342,
      "บทกวี": 8343,
      "ผลผลิต": 8344,
      "นายแบบ": 8345,
      "อเมริกาใต้": 8346,
      "ยากจน": 8347,
      "abl": 8348,
      "โน้ต": 8349,
      "Mr": 8350,
      "มั่นใจ": 8351,
      "ibrary": 8352,
      "หาสน์": 8353,
      "เลี้ยงดู": 8354,
      "พาล": 8355,
      "การสังหาร": 8356,
      "เกย์": 8357,
      "ยะฮ์": 8358,
      "ปราศจาก": 8359,
      "AC": 8360,
      "LO": 8361,
      "เวอ": 8362,
      "แซ่": 8363,
      "valign": 8364,
      "เกร็ด": 8365,
      "โพสต์": 8366,
      "เชื้อชาติ": 8367,
      "ลิงก์": 8368,
      "คุณวุฒิ": 8369,
      "พระเอก": 8370,
      "ผู้ดูแล": 8371,
      "เสิร์ฟ": 8372,
      "ทำนาย": 8373,
      "ตุง": 8374,
      "กระทรวงคมนาคม": 8375,
      "oug": 8376,
      "มัธยมปลาย": 8377,
      "ไบรอัน": 8378,
      "ฝูงบิน": 8379,
      "แก่ง": 8380,
      "มิกส์": 8381,
      "อิศ": 8382,
      "ota": 8383,
      "ยานพาหนะ": 8384,
      "ดิง": 8385,
      "พระจันทร์": 8386,
      "ภาครัฐ": 8387,
      "คณะวิศวกรรมศาสตร์": 8388,
      "พยากรณ์": 8389,
      "เผด็จการ": 8390,
      "ากลาง": 8391,
      "Good": 8392,
      "ฐานันดร": 8393,
      "โตโย": 8394,
      "พัช": 8395,
      "Encyclop": 8396,
      "โตโยต้า": 8397,
      "oma": 8398,
      "ille": 8399,
      "Techn": 8400,
      "คิริ": 8401,
      "แบล็ค": 8402,
      "อุลตร้าแมน": 8403,
      "Bus": 8404,
      "cell": 8405,
      "แม่ม": 8406,
      "จับคู่": 8407,
      "องคมน": 8408,
      "่อย่าง": 8409,
      "This": 8410,
      "เผ่าพันธุ์": 8411,
      "องคมนตรี": 8412,
      "ฉิน": 8413,
      "เรก": 8414,
      "หาว่า": 8415,
      "เตรียมอุดมศึกษา": 8416,
      "ดาร": 8417,
      "udd": 8418,
      "Fed": 8419,
      "itch": 8420,
      "ศิริ": 8421,
      "ล่วงหน้า": 8422,
      "อินทรีย์": 8423,
      "มั่ง": 8424,
      "ระดับน้ำทะเล": 8425,
      "แอปเปิล": 8426,
      "BBC": 8427,
      "Sub": 8428,
      "ional": 8429,
      "สวิฟต์": 8430,
      "ท้ายที่สุด": 8431,
      "แดนซ์": 8432,
      "Green": 8433,
      "ck": 8434,
      "กถา": 8435,
      "ศัล": 8436,
      "ความดี": 8437,
      "การตาย": 8438,
      "umb": 8439,
      "ดู่": 8440,
      "มหัศ": 8441,
      "ทรอ": 8442,
      "เรียม": 8443,
      "โปรเจกต์": 8444,
      "สมเด็จพระสังฆราช": 8445,
      "โพธิสัตว์": 8446,
      "โฆษก": 8447,
      "ดีอาระเบีย": 8448,
      "านุภาพ": 8449,
      "เลนส์": 8450,
      "ซาอุดีอาระเบีย": 8451,
      "มหัศจรรย์": 8452,
      "ลงวันที่": 8453,
      "พูดคุย": 8454,
      "ฮอล์": 8455,
      "กลอน": 8456,
      "เอี๋ยน": 8457,
      "orge": 8458,
      "ส่วนบุคคล": 8459,
      "ตระหนัก": 8460,
      "เชลย": 8461,
      "pin": 8462,
      "rum": 8463,
      "วัตถุดิบ": 8464,
      "ปาล์ม": 8465,
      "was": 8466,
      "หรู": 8467,
      "ยุ่ง": 8468,
      "ภูมิคุ้มกัน": 8469,
      "ขนมปัง": 8470,
      "แฟรงก์": 8471,
      "การถ่ายทำ": 8472,
      "ระนา": 8473,
      "อ้าย": 8474,
      "ฝึกอบรม": 8475,
      "หาดใหญ่": 8476,
      "ฮย็อน": 8477,
      "งานแสดง": 8478,
      "ยูร": 8479,
      "odes": 8480,
      "พักตร์": 8481,
      "คาดการณ์": 8482,
      "จือ": 8483,
      "ือย": 8484,
      "ความไม่": 8485,
      "ชาวเมือง": 8486,
      "แท่ง": 8487,
      "Cont": 8488,
      "ร้านค้า": 8489,
      "สาล": 8490,
      "แต่อย่าง": 8491,
      "แต่อย่างใด": 8492,
      "Di": 8493,
      "ไปมา": 8494,
      "เห็ด": 8495,
      "รำลึก": 8496,
      "ทุกวันนี้": 8497,
      "ych": 8498,
      "เป็นแนว": 8499,
      "ความเจริญ": 8500,
      "แควร์": 8501,
      "อินโดจีน": 8502,
      "ควีน": 8503,
      "ักษณ์": 8504,
      "โจเซฟ": 8505,
      "ปิยะ": 8506,
      "ภิรมย์": 8507,
      "แพลต": 8508,
      "ไม่ได้": 8509,
      "ทหารม้า": 8510,
      "พุทธศาสนิกชน": 8511,
      "Kim": 8512,
      "อกัน": 8513,
      "Hot": 8514,
      "su": 8515,
      "จก": 8516,
      "ทรี": 8517,
      "ผู้ใด": 8518,
      "arg": 8519,
      "Cup": 8520,
      "Sol": 8521,
      "ผลึก": 8522,
      "สแควร์": 8523,
      "ฮิล": 8524,
      "เบรก": 8525,
      "ลูกศิษย์": 8526,
      "Dep": 8527,
      "ros": 8528,
      "ด็อก": 8529,
      "ประกอบอาชีพ": 8530,
      "มรณะ": 8531,
      "สมัชชา": 8532,
      "อีกต่อไป": 8533,
      "นามิ": 8534,
      "คั่ง": 8535,
      "uring": 8536,
      "aki": 8537,
      "ลอฮ์": 8538,
      "มัธยมศึกษาตอนต้น": 8539,
      "โณ": 8540,
      "หมึก": 8541,
      "แบก": 8542,
      "กระดาน": 8543,
      "วอด": 8544,
      "เรตติ้ง": 8545,
      "ซึมเศร้า": 8546,
      "God": 8547,
      "Wom": 8548,
      "ทอน": 8549,
      "คำอธิบาย": 8550,
      "ami": 8551,
      "bi": 8552,
      "ประยูร": 8553,
      "เบกษา": 8554,
      "rew": 8555,
      "กทม": 8556,
      "เชอ": 8557,
      "ao": 8558,
      "page": 8559,
      "สับ": 8560,
      "อ๋อง": 8561,
      "use": 8562,
      "Su": 8563,
      "็อด": 8564,
      "อุด": 8565,
      "อ่างทอง": 8566,
      "จำนน": 8567,
      "บุตรธิดา": 8568,
      "ซึ้ง": 8569,
      "แคลน": 8570,
      "งานศิลปะ": 8571,
      "มหาวิทยาลัยเชียงใหม่": 8572,
      "uki": 8573,
      "Young": 8574,
      "เวเนซุ": 8575,
      "มีความรู้": 8576,
      "เถระ": 8577,
      "Graph": 8578,
      "อมร": 8579,
      "แอ็ก": 8580,
      "เป็นอิสระ": 8581,
      "บอนด์": 8582,
      "ทวาร": 8583,
      "ลิทัว": 8584,
      "กิ้ง": 8585,
      "ลิทัวเนีย": 8586,
      "Cat": 8587,
      "ตเตอร์": 8588,
      "หรี่": 8589,
      "oft": 8590,
      "Richard": 8591,
      "เวเนซุเอลา": 8592,
      "Don": 8593,
      "ลิขิต": 8594,
      "สังขรณ์": 8595,
      "ตอร์": 8596,
      "อ๊": 8597,
      "แอ่ง": 8598,
      "ข้าศึก": 8599,
      "อัจฉริยะ": 8600,
      "สวิส": 8601,
      "ออกเดินทาง": 8602,
      "ภูธร": 8603,
      "พระบรมราชินีนาถ": 8604,
      "จดหมายเหตุ": 8605,
      "โรงเรียนสาธิต": 8606,
      "พระราชกฤษฎีกา": 8607,
      "ทะเลทราย": 8608,
      "เวชศาสตร์": 8609,
      "Ke": 8610,
      "ราชบุตร": 8611,
      "ฉลาม": 8612,
      "เทือน": 8613,
      "Fest": 8614,
      "now": 8615,
      "โพรง": 8616,
      "ค็อก": 8617,
      "วงศ์เธอ": 8618,
      "แพลตฟอร์ม": 8619,
      "Fe": 8620,
      "นเท็น": 8621,
      "ร่อน": 8622,
      "ทรมาน": 8623,
      "บรรเทา": 8624,
      "Cambridge": 8625,
      "Dis": 8626,
      "ทุ่ม": 8627,
      "เซ่": 8628,
      "ผลัด": 8629,
      "Bu": 8630,
      "เป็นเหตุ": 8631,
      "เรอร์": 8632,
      "เป็นเหตุให้": 8633,
      "ดีเจ": 8634,
      "เบี้ย": 8635,
      "ลอว์": 8636,
      "Japanese": 8637,
      "อาสาสมัคร": 8638,
      "พระนารายณ์": 8639,
      "เตี้ย": 8640,
      "โซม": 8641,
      "Mov": 8642,
      "เซะ": 8643,
      "เบร์": 8644,
      "สมุทรสงคราม": 8645,
      "ดวงดาว": 8646,
      "ตึง": 8647,
      "vir": 8648,
      "ales": 8649,
      "เวิร์คพอยท์": 8650,
      "ลีโอ": 8651,
      "วอล์": 8652,
      "เรื่องเล่า": 8653,
      "ทองแดง": 8654,
      "รถไฟใต้ดิน": 8655,
      "DF": 8656,
      "ุส": 8657,
      "รีด": 8658,
      "ขั้นพื้นฐาน": 8659,
      "ฟัก": 8660,
      "เสวย": 8661,
      "หอประชุม": 8662,
      "ไมโครซอฟท์": 8663,
      "ents": 8664,
      "วรวงศ์เธอ": 8665,
      "Dem": 8666,
      "บทประพันธ์": 8667,
      "มุติ": 8668,
      "หอคอย": 8669,
      "สวดมนต์": 8670,
      "วีดี": 8671,
      "คุรุ": 8672,
      "มองโกล": 8673,
      "พระบรมราชูปถัมภ์": 8674,
      "ider": 8675,
      "ady": 8676,
      "ste": 8677,
      "รอม": 8678,
      "ฮาวาย": 8679,
      "Special": 8680,
      "มุกดาหาร": 8681,
      "Phy": 8682,
      "aster": 8683,
      "สายลับ": 8684,
      "ฝาง": 8685,
      "สเปอร์": 8686,
      "กลุ่มชาติพันธุ์": 8687,
      "ธงชัย": 8688,
      "เฒ": 8689,
      "ทหารอากาศ": 8690,
      "Publish": 8691,
      "ถนัด": 8692,
      "ัป": 8693,
      "เอร์": 8694,
      "เมเจอร์": 8695,
      "ทิศตะวันตกเฉียง": 8696,
      "ทราน": 8697,
      "arm": 8698,
      "อุโมง": 8699,
      "ทันต": 8700,
      "อุโมงค์": 8701,
      "ือร์": 8702,
      "หนวด": 8703,
      "แตง": 8704,
      "กรู": 8705,
      "elf": 8706,
      "ชัยนาท": 8707,
      "สัญญาบัตร": 8708,
      "ซัคเซิน": 8709,
      "langu": 8710,
      "เกตุ": 8711,
      "เตย": 8712,
      "ส่วนพระองค์": 8713,
      "เฒ่า": 8714,
      "เค็น": 8715,
      "Image": 8716,
      "ster": 8717,
      "ขม": 8718,
      "โอ้": 8719,
      "เนื้อเพลง": 8720,
      "กระต่าย": 8721,
      "ความเกี่ยวข้อง": 8722,
      "aya": 8723,
      "เข้ารหัส": 8724,
      "อำนวยความสะดวก": 8725,
      "League": 8726,
      "ายน้ำ": 8727,
      "Vir": 8728,
      "ถนอม": 8729,
      "วิสาห": 8730,
      "ดีวีดี": 8731,
      "พฤกษ": 8732,
      "เข็มขัด": 8733,
      "วิสาหกิจ": 8734,
      "โคม": 8735,
      "จานุ": 8736,
      "ทเทิล": 8737,
      "สฺ": 8738,
      "ที่เก็บ": 8739,
      "สำนึก": 8740,
      "โดเมน": 8741,
      "ทางใน": 8742,
      "ities": 8743,
      "บัค": 8744,
      "อภิปราย": 8745,
      "พระไตร": 8746,
      "เทย์เลอร์": 8747,
      "การจำแนก": 8748,
      "ทางกายภาพ": 8749,
      "ทำไม": 8750,
      "ago": 8751,
      "ไหว้": 8752,
      "เคียน": 8753,
      "ยโสธร": 8754,
      "มหาย": 8755,
      "ยอมจำนน": 8756,
      "สั่งการ": 8757,
      "ค้นคว้า": 8758,
      "เก็บรักษา": 8759,
      "ท้าทาย": 8760,
      "คฤหาสน์": 8761,
      "โกศ": 8762,
      "คาสเซิล": 8763,
      "ปรางค์": 8764,
      "Mel": 8765,
      "itz": 8766,
      "บกพร่อง": 8767,
      "จื้อ": 8768,
      "กนิษฐา": 8769,
      "อบี": 8770,
      "โรแมนติก": 8771,
      "นฤ": 8772,
      "กลั่น": 8773,
      "ียล": 8774,
      "พระปริยัติธรรม": 8775,
      "อุตุ": 8776,
      "จริงจัง": 8777,
      "Pan": 8778,
      "kok": 8779,
      "ชอป": 8780,
      "พลัด": 8781,
      "ความเป็นมา": 8782,
      "Cult": 8783,
      "ปัด": 8784,
      "ที่อื่น": 8785,
      "สุขุมวิท": 8786,
      "นาวิก": 8787,
      "ench": 8788,
      "กิต": 8789,
      "รองศาสตราจารย์": 8790,
      "Public": 8791,
      "กรวย": 8792,
      "ori": 8793,
      "เคาะ": 8794,
      "บัต": 8795,
      "ปกเกล้า": 8796,
      "White": 8797,
      "กรัม": 8798,
      "alth": 8799,
      "ยาห์": 8800,
      "อักษรย่อ": 8801,
      "ไชส์": 8802,
      "โหด": 8803,
      "ยั่ง": 8804,
      "Tur": 8805,
      "สารเคมี": 8806,
      "Sk": 8807,
      "nail": 8808,
      "try": 8809,
      "Langu": 8810,
      "อมเบีย": 8811,
      "รามา": 8812,
      "พระบรมศพ": 8813,
      "โคลอมเบีย": 8814,
      "Your": 8815,
      "สุรา": 8816,
      "ภาพประกอบ": 8817,
      "มุ่งหมาย": 8818,
      "ua": 8819,
      "ทาร์": 8820,
      "โงะ": 8821,
      "ระนอง": 8822,
      "อาลี": 8823,
      "ภาพเหมือน": 8824,
      "โกเลีย": 8825,
      "มองโกเลีย": 8826,
      "อุตุนิยม": 8827,
      "bas": 8828,
      "สมมุติ": 8829,
      "ขณะเดียวกัน": 8830,
      "ท่านผู้หญิง": 8831,
      "ผู้รักษาประตู": 8832,
      "รอว์": 8833,
      "จรด": 8834,
      "หลอม": 8835,
      "แพท": 8836,
      "Peter": 8837,
      "ฏฐ": 8838,
      "ปป": 8839,
      "ยศาสตร์": 8840,
      "ออม": 8841,
      "เพจ": 8842,
      "นิรัน": 8843,
      "อิ่ม": 8844,
      "ลูกหลาน": 8845,
      "cont": 8846,
      "Oc": 8847,
      "ตละ": 8848,
      "พิทย": 8849,
      "อุดมสมบูรณ์": 8850,
      "คีรีขันธ์": 8851,
      "ประจวบคีรีขันธ์": 8852,
      "ลเฮ": 8853,
      "หด": 8854,
      "ชานชาลา": 8855,
      "อินทรี": 8856,
      "บอสเนีย": 8857,
      "ยั่งยืน": 8858,
      "ประหยัด": 8859,
      "ero": 8860,
      "าร์ก": 8861,
      "mag": 8862,
      "ฮุน": 8863,
      "ทำความ": 8864,
      "โอเวอร์": 8865,
      "ผนึก": 8866,
      "AL": 8867,
      "duc": 8868,
      "tic": 8869,
      "โต้แย้ง": 8870,
      "เมจิ": 8871,
      "ตั้งครรภ์": 8872,
      "ไอริช": 8873,
      "เชิงพาณิชย์": 8874,
      "Jack": 8875,
      "รพิ": 8876,
      "Research": 8877,
      "ฮุย": 8878,
      "โถง": 8879,
      "งอก": 8880,
      "พยาน": 8881,
      "ลาง": 8882,
      "ความงาม": 8883,
      "กันเอง": 8884,
      "กราด": 8885,
      "แฟรนไชส์": 8886,
      "ยุว": 8887,
      "พันธะ": 8888,
      "ไทน์": 8889,
      "Video": 8890,
      "การวางแผน": 8891,
      "มหาวิทยาลัยขอนแก่น": 8892,
      "มหาธาตุ": 8893,
      "เป็นส่วนใหญ่": 8894,
      "Open": 8895,
      "อุตุนิยมวิทยา": 8896,
      "ประศาสน": 8897,
      "ภาณุ": 8898,
      "ตัวรับ": 8899,
      "๊า": 8900,
      "หลั่ง": 8901,
      "head": 8902,
      "Oxford": 8903,
      "จานุเบกษา": 8904,
      "AS": 8905,
      "mp": 8906,
      "ว็อน": 8907,
      "แซก": 8908,
      "Rob": 8909,
      "uan": 8910,
      "ผู้บัญชา": 8911,
      "แสบ": 8912,
      "ดาวน์โหลด": 8913,
      "Ak": 8914,
      "หยิบ": 8915,
      "คว่ำ": 8916,
      "reat": 8917,
      "คอปเตอร์": 8918,
      "พหล": 8919,
      "ทางน้ำ": 8920,
      "ตอบแทน": 8921,
      "ชั่วร้าย": 8922,
      "ขระ": 8923,
      "เสี่ยว": 8924,
      "จุดหมาย": 8925,
      "อิบน์": 8926,
      "สหาย": 8927,
      "ฝั่งทะเล": 8928,
      "พักผ่อน": 8929,
      "ขุม": 8930,
      "ามติ": 8931,
      "ตามิน": 8932,
      "รูปภาพ": 8933,
      "ประชามติ": 8934,
      "novel": 8935,
      "ะเร็ง": 8936,
      "ติย": 8937,
      "คมะเร็ง": 8938,
      "โรคมะเร็ง": 8939,
      "จู่โจม": 8940,
      "Ev": 8941,
      "Rh": 8942,
      "เซียง": 8943,
      "อุย": 8944,
      "มีผลต่อ": 8945,
      "เฟรด": 8946,
      "พอดี": 8947,
      "วิทยาคม": 8948,
      "ally": 8949,
      "เวียนนา": 8950,
      "มีประโยชน์": 8951,
      "เสริญ": 8952,
      "สรรเสริญ": 8953,
      "นักออกแบบ": 8954,
      "อำมาตย์": 8955,
      "End": 8956,
      "ซี้": 8957,
      "ดัส": 8958,
      "serv": 8959,
      "html": 8960,
      "พลาส": 8961,
      "ติดกัน": 8962,
      "โปร่ง": 8963,
      "แกล้ง": 8964,
      "Kore": 8965,
      "หริ": 8966,
      "ิร์ด": 8967,
      "เท่าเทียม": 8968,
      "ลงมติ": 8969,
      "แพ็ค": 8970,
      "ครึ่งหนึ่ง": 8971,
      "สามัญศึกษา": 8972,
      "ไห้": 8973,
      "HO": 8974,
      "เค้ก": 8975,
      "ตุ้ง": 8976,
      "พีระ": 8977,
      "ประพฤติ": 8978,
      "ว่าที่": 8979,
      "oice": 8980,
      "ความใน": 8981,
      "ลิว": 8982,
      "Stand": 8983,
      "ocal": 8984,
      "ather": 8985,
      "ไออ": 8986,
      "การกุศล": 8987,
      "ราด": 8988,
      "เทร": 8989,
      "เกียง": 8990,
      "พเจ้า": 8991,
      "ข้าพเจ้า": 8992,
      "uel": 8993,
      "อรร": 8994,
      "เปรู": 8995,
      "ด้วง": 8996,
      "เท็กซัส": 8997,
      "โอร": 8998,
      "ราชกิจจานุเบกษา": 8999,
      "เต็ง": 9000,
      "Ste": 9001,
      "โมเดิร์น": 9002,
      "กึ": 9003,
      "East": 9004,
      "RS": 9005,
      "ฝ้าย": 9006,
      "เปรม": 9007,
      "หมัก": 9008,
      "ashi": 9009,
      "พาวเวอร์": 9010,
      "เถร": 9011,
      "ยางค์": 9012,
      "ปอง": 9013,
      "ริ้ว": 9014,
      "ศิลปศาสตร์": 9015,
      "จูง": 9016,
      "ฟาง": 9017,
      "โรดม": 9018,
      "สัญกรรม": 9019,
      "พาส": 9020,
      "ที่รวม": 9021,
      "การัง": 9022,
      "เสริมเหล็ก": 9023,
      "ปะการัง": 9024,
      "คอนกรีตเสริมเหล็ก": 9025,
      "ker": 9026,
      "สมัยโบราณ": 9027,
      "spec": 9028,
      "ดราม่า": 9029,
      "สวนสาธารณะ": 9030,
      "ร่ำรวย": 9031,
      "และกัน": 9032,
      "กันและกัน": 9033,
      "ข้อจำกัด": 9034,
      "ฮิป": 9035,
      "เลียนแบบ": 9036,
      "first": 9037,
      "แม่ฮ่อง": 9038,
      "แม่ฮ่องสอน": 9039,
      "Ill": 9040,
      "bin": 9041,
      "ถ้วน": 9042,
      "บาว": 9043,
      "อุปราช": 9044,
      "นิวเคลียส": 9045,
      "นันทน์": 9046,
      "Books": 9047,
      "รอก": 9048,
      "เยอ": 9049,
      "กานา": 9050,
      "ปลงพระชนม์": 9051,
      "พันธสัญญา": 9052,
      "อ์": 9053,
      "atab": 9054,
      "ศาลฎีกา": 9055,
      "สึกิ": 9056,
      "เจ็บปวด": 9057,
      "พระไตรปิฎก": 9058,
      "นิร": 9059,
      "ด้านใน": 9060,
      "edition": 9061,
      "George": 9062,
      "Hen": 9063,
      "รับมอบหมาย": 9064,
      "โอเพน": 9065,
      "ตามเวลา": 9066,
      "แทง": 9067,
      "คอลัม": 9068,
      "Lou": 9069,
      "ชาตรี": 9070,
      "เต๋า": 9071,
      "กล้าหาญ": 9072,
      "ไห่": 9073,
      "How": 9074,
      "ผลิ": 9075,
      "ครองเมือง": 9076,
      "ดมิน": 9077,
      "ทัก": 9078,
      "แบดมิน": 9079,
      "น้ำจืด": 9080,
      "กระเป๋า": 9081,
      "แบดมินตัน": 9082,
      "อาเซอร์": 9083,
      "ปล้อง": 9084,
      "aku": 9085,
      "ไบจาน": 9086,
      "อาเซอร์ไบจาน": 9087,
      "She": 9088,
      "ตรร": 9089,
      "วิสัย": 9090,
      "นครนายก": 9091,
      "คาราบาว": 9092,
      "ยน": 9093,
      "ฤๅ": 9094,
      "เร้า": 9095,
      "กระจุก": 9096,
      "Legend": 9097,
      "หมั้น": 9098,
      "เป็นสาเหตุ": 9099,
      "าน้ำ": 9100,
      "้นท์": 9101,
      "สมัยก่อน": 9102,
      "านุวงศ์": 9103,
      "วงศานุวงศ์": 9104,
      "IP": 9105,
      "ได้ชัด": 9106,
      "เห็นได้ชัด": 9107,
      "กระดูกสันหลัง": 9108,
      "overnment": 9109,
      "ปราชญ์": 9110,
      "ทัส": 9111,
      "เพลงลูกทุ่ง": 9112,
      "พิพัฒน์": 9113,
      "ยังอยู่": 9114,
      "คิวบา": 9115,
      "ปักษ์": 9116,
      "ato": 9117,
      "เฮด": 9118,
      "ison": 9119,
      "พระบรมวงศานุวงศ์": 9120,
      "ไอออน": 9121,
      "แทก": 9122,
      "สัตว์น้ำ": 9123,
      "ชาร์ลส์": 9124,
      "พระอารามหลวง": 9125,
      "รท": 9126,
      "นูน": 9127,
      "นายกองค์การบริหารส่วนจังหวัด": 9128,
      "โน้มถ่วง": 9129,
      "รึ": 9130,
      "สก์": 9131,
      "ทางกฎหมาย": 9132,
      "น้อยลง": 9133,
      "ห่างไกล": 9134,
      "Boy": 9135,
      "ทัง": 9136,
      "วิตามิน": 9137,
      "คริสตัล": 9138,
      "Website": 9139,
      "aria": 9140,
      "ชีวะ": 9141,
      "สักการะ": 9142,
      "Island": 9143,
      "กานต์": 9144,
      "news": 9145,
      "โคลัมเบีย": 9146,
      "คัมภีร์ไบเบิล": 9147,
      "sup": 9148,
      "เอย": 9149,
      "วีดีโอ": 9150,
      "โทรคมนาคม": 9151,
      "Academ": 9152,
      "กำลังใจ": 9153,
      "เด็กชาย": 9154,
      "valigntop": 9155,
      "เกิ้ล": 9156,
      "รับจ้าง": 9157,
      "กูเกิล": 9158,
      "สตรีม": 9159,
      "ผู้เข้าร่วม": 9160,
      "มิใช่": 9161,
      "คลาน": 9162,
      "ยูเนส": 9163,
      "หิรัญ": 9164,
      "ยูเนสโก": 9165,
      "สค์": 9166,
      "SD": 9167,
      "imag": 9168,
      "เงินทุน": 9169,
      "หัตถ์": 9170,
      "การรับรู้": 9171,
      "ดุริ": 9172,
      "ขุนศึก": 9173,
      "พลาสติก": 9174,
      "GN": 9175,
      "โอบ": 9176,
      "เดะ": 9177,
      "หว้า": 9178,
      "พังก์": 9179,
      "ุระ": 9180,
      "ไพศ": 9181,
      "ซากุระ": 9182,
      "หมอก": 9183,
      "ให้กำเนิด": 9184,
      "พยาธิ": 9185,
      "แกนนำ": 9186,
      "างใจ": 9187,
      "ผสมพันธุ์": 9188,
      "มรณภาพ": 9189,
      "สืบราชบัลลังก์": 9190,
      "จิตรกรรมฝาผนัง": 9191,
      "ไพศาล": 9192,
      "ฟส์": 9193,
      "เดชา": 9194,
      "olf": 9195,
      "บังกลา": 9196,
      "ection": 9197,
      "บังกลาเทศ": 9198,
      "Af": 9199,
      "Disc": 9200,
      "แชน": 9201,
      "และสหกรณ์": 9202,
      "เร็น": 9203,
      "ต่อหน้า": 9204,
      "โลน": 9205,
      "อุทก": 9206,
      "irth": 9207,
      "เป็นต้นไป": 9208,
      "เซ็นต์": 9209,
      "ขอม": 9210,
      "อเนก": 9211,
      "เทคโนโลยีสารสนเทศ": 9212,
      "แต้": 9213,
      "คลิ": 9214,
      "อัลบัม": 9215,
      "Kr": 9216,
      "can": 9217,
      "หมิ่น": 9218,
      "iness": 9219,
      "โจ้": 9220,
      "ข้างหน้า": 9221,
      "ริมแม่น้ำ": 9222,
      "กระชับ": 9223,
      "เอิญ": 9224,
      "olia": 9225,
      "play": 9226,
      "เป็นจริง": 9227,
      "obal": 9228,
      "Dig": 9229,
      "Lab": 9230,
      "Pap": 9231,
      "เส้า": 9232,
      "แมส": 9233,
      "โกศล": 9234,
      "พีระมิด": 9235,
      "จระ": 9236,
      "บรรทัด": 9237,
      "พาด": 9238,
      "กวางตุ้ง": 9239,
      "ข่มข": 9240,
      "iend": 9241,
      "มีแนวโน้ม": 9242,
      "เรือนจำ": 9243,
      "แฟนคลับ": 9244,
      "AK": 9245,
      "Power": 9246,
      "จลา": 9247,
      "รื่น": 9248,
      "เวทย์": 9249,
      "online": 9250,
      "เตียน": 9251,
      "ลิคอปเตอร์": 9252,
      "้วางใจ": 9253,
      "ไว้วางใจ": 9254,
      "เฮลิคอปเตอร์": 9255,
      "ฎิ": 9256,
      "สปา": 9257,
      "about": 9258,
      "illa": 9259,
      "มอนสเตอร์": 9260,
      "จำเพาะ": 9261,
      "เอิร์ธ": 9262,
      "ไวน์": 9263,
      "บุ๊ค": 9264,
      "ระยะแรก": 9265,
      "Tem": 9266,
      "writ": 9267,
      "วิส": 9268,
      "พงศาวลี": 9269,
      "Are": 9270,
      "เล็ต": 9271,
      "ให้ความสำคัญ": 9272,
      "omb": 9273,
      "Program": 9274,
      "ดล": 9275,
      "you": 9276,
      "ช็อก": 9277,
      "ปีน": 9278,
      "คล่อง": 9279,
      "ตามปกติ": 9280,
      "ทางการค้า": 9281,
      "บังเอิญ": 9282,
      "เกรียง": 9283,
      "ช็อน": 9284,
      "une": 9285,
      "sk": 9286,
      "จิจูด": 9287,
      "ลองจิจูด": 9288,
      "ข้าราชการพลเรือน": 9289,
      "จินตนาการ": 9290,
      "ดรู": 9291,
      "เรตส์": 9292,
      "บุษ": 9293,
      "แถม": 9294,
      "เพลิน": 9295,
      "บรูไน": 9296,
      "Graphic": 9297,
      "Land": 9298,
      "เฟิล": 9299,
      "ไซน์": 9300,
      "ยุคสมัย": 9301,
      "เกียวโต": 9302,
      "Paris": 9303,
      "Back": 9304,
      "บดิน": 9305,
      "ตัวย่อ": 9306,
      "เฮย์": 9307,
      "เล่าเรื่อง": 9308,
      "ชนีย": 9309,
      "ตามคำสั่ง": 9310,
      "สิงห": 9311,
      "ปนา": 9312,
      "โพล": 9313,
      "ริง": 9314,
      "notes": 9315,
      "Library": 9316,
      "Nat": 9317,
      "rest": 9318,
      "อรัญ": 9319,
      "เหนือกว่า": 9320,
      "ปริมณฑล": 9321,
      "หันไป": 9322,
      "ฟิลด์": 9323,
      "Ka": 9324,
      "สารานุกรม": 9325,
      "Franc": 9326,
      "จลาจล": 9327,
      "ลัต": 9328,
      "ทีป": 9329,
      "แจ่ม": 9330,
      "ธรณีวิทยา": 9331,
      "กอบ": 9332,
      "Blue": 9333,
      "กรง": 9334,
      "iter": 9335,
      "คาโก": 9336,
      "ชิคาโก": 9337,
      "road": 9338,
      "โทรทรรศน์": 9339,
      "หากิน": 9340,
      "ฝาแฝด": 9341,
      "โหลก": 9342,
      "บารมี": 9343,
      "ซูล": 9344,
      "เลม": 9345,
      "ธำ": 9346,
      "ผู้ต้อง": 9347,
      "ความชอบ": 9348,
      "ico": 9349,
      "Road": 9350,
      "ตูม": 9351,
      "จริงๆ": 9352,
      "establ": 9353,
      "ล้านช้าง": 9354,
      "ยิงปืน": 9355,
      "จักรภพ": 9356,
      "กะโหลก": 9357,
      "เนรเทศ": 9358,
      "Bre": 9359,
      "กรัง": 9360,
      "ชาวต่างชาติ": 9361,
      "ชายหนุ่ม": 9362,
      "ที่ว่าการอำเภอ": 9363,
      "Gar": 9364,
      "Jos": 9365,
      "เระ": 9366,
      "ความลึก": 9367,
      "College": 9368,
      "enz": 9369,
      "อุปั": 9370,
      "สัมพันธ": 9371,
      "ช่า": 9372,
      "เชา": 9373,
      "ote": 9374,
      "Asian": 9375,
      "กล้องโทรทรรศน์": 9376,
      "นเดิส": 9377,
      "Ha": 9378,
      "เคย์": 9379,
      "Mah": 9380,
      "คนอื่นๆ": 9381,
      "ยุคล": 9382,
      "หน้าจอ": 9383,
      "เฟิน": 9384,
      "คู่หู": 9385,
      "เป็นที่ยอมรับ": 9386,
      "คีน": 9387,
      "Master": 9388,
      "XX": 9389,
      "ชู้": 9390,
      "ปัจจุบันนี้": 9391,
      "dex": 9392,
      "TI": 9393,
      "ซึง": 9394,
      "จัดพิมพ์": 9395,
      "คริสต์มาส": 9396,
      "Profile": 9397,
      "Hz": 9398,
      "Tokyo": 9399,
      "Hon": 9400,
      "พยุ": 9401,
      "ด้านนอก": 9402,
      "บนสุด": 9403,
      "โทรม": 9404,
      "จิตวิญญาณ": 9405,
      "เจอร์ส": 9406,
      "nia": 9407,
      "เรขา": 9408,
      "ผู้บริโภค": 9409,
      "ให้เหตุผล": 9410,
      "เอธิ": 9411,
      "เบิ้ล": 9412,
      "โอเปีย": 9413,
      "หน้าใหม่": 9414,
      "ถือกำเนิด": 9415,
      "เอธิโอเปีย": 9416,
      "Information": 9417,
      "ineer": 9418,
      "เปรี้ยว": 9419,
      "ฮาร์ต": 9420,
      "Final": 9421,
      "mo": 9422,
      "ฮอร์โมน": 9423,
      "ครีม": 9424,
      "จอน": 9425,
      "ทรุด": 9426,
      "เฉา": 9427,
      "ก่อนคริสต์ศักราช": 9428,
      "ช่องว่าง": 9429,
      "อีส": 9430,
      "ลักษณะเด่น": 9431,
      "ants": 9432,
      "วิบูล": 9433,
      "เจล": 9434,
      "ช้างเผือก": 9435,
      "ธิราชเจ้า": 9436,
      "หอสมุด": 9437,
      "คองโก": 9438,
      "Zh": 9439,
      "สสาร": 9440,
      "สาวน": 9441,
      "บทละคร": 9442,
      "เครื่องเล่น": 9443,
      "สภาพอากาศ": 9444,
      "สมรภูมิ": 9445,
      "day": 9446,
      "iev": 9447,
      "รูปสี่เหลี่ยม": 9448,
      "Light": 9449,
      "ารุส": 9450,
      "การวินิจฉัย": 9451,
      "ซอส": 9452,
      "โคนัน": 9453,
      "ทวีปอเมริกาเหนือ": 9454,
      "ญฺ": 9455,
      "๊อ": 9456,
      "ปฏิสังขรณ์": 9457,
      "ดวงใจ": 9458,
      "ชญ์": 9459,
      "ฟาร์ม": 9460,
      "สาวน้อย": 9461,
      "Last": 9462,
      "Times": 9463,
      "นบ": 9464,
      "ots": 9465,
      "ตะวันออกกลาง": 9466,
      "เจตนา": 9467,
      "สยองขวัญ": 9468,
      "น่ารัก": 9469,
      "Fac": 9470,
      "ฤทัย": 9471,
      "ละออง": 9472,
      "กรมสมเด็จพระเทพรัตนราชสุดาฯ": 9473,
      "หอก": 9474,
      "ปากแม่น้ำ": 9475,
      "แม่มด": 9476,
      "ภัท": 9477,
      "หมากร": 9478,
      "จำเลย": 9479,
      "กระเพาะ": 9480,
      "Album": 9481,
      "ผีเสื้อ": 9482,
      "General": 9483,
      "รับมือ": 9484,
      "ฟลอริ": 9485,
      "กติก": 9486,
      "ชิม": 9487,
      "โกง": 9488,
      "หวาย": 9489,
      "สัณ": 9490,
      "ขนานนาม": 9491,
      "หมากรุก": 9492,
      "ฟลอริดา": 9493,
      "Bill": 9494,
      "men": 9495,
      "เข่า": 9496,
      "เมืองท่า": 9497,
      "ปราโม": 9498,
      "Afr": 9499,
      "ating": 9500,
      "ภักดิ์": 9501,
      "สม่ำ": 9502,
      "บริบท": 9503,
      "ไชยา": 9504,
      "British": 9505,
      "Tak": 9506,
      "ชานเมือง": 9507,
      "วอดส์": 9508,
      "cus": 9509,
      "เมกะ": 9510,
      "วันเดียวกัน": 9511,
      "สมเด็จพระกนิษฐา": 9512,
      "สม่ำเสมอ": 9513,
      "สมเด็จพระกนิษฐาธิราชเจ้า": 9514,
      "Feb": 9515,
      "SM": 9516,
      "พรรคพลังประชาชน": 9517,
      "พอร์": 9518,
      "หนอน": 9519,
      "ทั้งปวง": 9520,
      "ington": 9521,
      "ดรีม": 9522,
      "พ่น": 9523,
      "กล่อม": 9524,
      "เอมิ": 9525,
      "เยน": 9526,
      "เอมิเรตส์": 9527,
[...]
